<pad>	0
<unk>	0
<s>	0
</s>	0
[MASK]	0
<0x00>	0
<0x01>	0
<0x02>	0
<0x03>	0
<0x04>	0
<0x05>	0
<0x06>	0
<0x07>	0
<0x08>	0
<0x09>	0
<0x0A>	0
<0x0B>	0
<0x0C>	0
<0x0D>	0
<0x0E>	0
<0x0F>	0
<0x10>	0
<0x11>	0
<0x12>	0
<0x13>	0
<0x14>	0
<0x15>	0
<0x16>	0
<0x17>	0
<0x18>	0
<0x19>	0
<0x1A>	0
<0x1B>	0
<0x1C>	0
<0x1D>	0
<0x1E>	0
<0x1F>	0
<0x20>	0
<0x21>	0
<0x22>	0
<0x23>	0
<0x24>	0
<0x25>	0
<0x26>	0
<0x27>	0
<0x28>	0
<0x29>	0
<0x2A>	0
<0x2B>	0
<0x2C>	0
<0x2D>	0
<0x2E>	0
<0x2F>	0
<0x30>	0
<0x31>	0
<0x32>	0
<0x33>	0
<0x34>	0
<0x35>	0
<0x36>	0
<0x37>	0
<0x38>	0
<0x39>	0
<0x3A>	0
<0x3B>	0
<0x3C>	0
<0x3D>	0
<0x3E>	0
<0x3F>	0
<0x40>	0
<0x41>	0
<0x42>	0
<0x43>	0
<0x44>	0
<0x45>	0
<0x46>	0
<0x47>	0
<0x48>	0
<0x49>	0
<0x4A>	0
<0x4B>	0
<0x4C>	0
<0x4D>	0
<0x4E>	0
<0x4F>	0
<0x50>	0
<0x51>	0
<0x52>	0
<0x53>	0
<0x54>	0
<0x55>	0
<0x56>	0
<0x57>	0
<0x58>	0
<0x59>	0
<0x5A>	0
<0x5B>	0
<0x5C>	0
<0x5D>	0
<0x5E>	0
<0x5F>	0
<0x60>	0
<0x61>	0
<0x62>	0
<0x63>	0
<0x64>	0
<0x65>	0
<0x66>	0
<0x67>	0
<0x68>	0
<0x69>	0
<0x6A>	0
<0x6B>	0
<0x6C>	0
<0x6D>	0
<0x6E>	0
<0x6F>	0
<0x70>	0
<0x71>	0
<0x72>	0
<0x73>	0
<0x74>	0
<0x75>	0
<0x76>	0
<0x77>	0
<0x78>	0
<0x79>	0
<0x7A>	0
<0x7B>	0
<0x7C>	0
<0x7D>	0
<0x7E>	0
<0x7F>	0
<0x80>	0
<0x81>	0
<0x82>	0
<0x83>	0
<0x84>	0
<0x85>	0
<0x86>	0
<0x87>	0
<0x88>	0
<0x89>	0
<0x8A>	0
<0x8B>	0
<0x8C>	0
<0x8D>	0
<0x8E>	0
<0x8F>	0
<0x90>	0
<0x91>	0
<0x92>	0
<0x93>	0
<0x94>	0
<0x95>	0
<0x96>	0
<0x97>	0
<0x98>	0
<0x99>	0
<0x9A>	0
<0x9B>	0
<0x9C>	0
<0x9D>	0
<0x9E>	0
<0x9F>	0
<0xA0>	0
<0xA1>	0
<0xA2>	0
<0xA3>	0
<0xA4>	0
<0xA5>	0
<0xA6>	0
<0xA7>	0
<0xA8>	0
<0xA9>	0
<0xAA>	0
<0xAB>	0
<0xAC>	0
<0xAD>	0
<0xAE>	0
<0xAF>	0
<0xB0>	0
<0xB1>	0
<0xB2>	0
<0xB3>	0
<0xB4>	0
<0xB5>	0
<0xB6>	0
<0xB7>	0
<0xB8>	0
<0xB9>	0
<0xBA>	0
<0xBB>	0
<0xBC>	0
<0xBD>	0
<0xBE>	0
<0xBF>	0
<0xC0>	0
<0xC1>	0
<0xC2>	0
<0xC3>	0
<0xC4>	0
<0xC5>	0
<0xC6>	0
<0xC7>	0
<0xC8>	0
<0xC9>	0
<0xCA>	0
<0xCB>	0
<0xCC>	0
<0xCD>	0
<0xCE>	0
<0xCF>	0
<0xD0>	0
<0xD1>	0
<0xD2>	0
<0xD3>	0
<0xD4>	0
<0xD5>	0
<0xD6>	0
<0xD7>	0
<0xD8>	0
<0xD9>	0
<0xDA>	0
<0xDB>	0
<0xDC>	0
<0xDD>	0
<0xDE>	0
<0xDF>	0
<0xE0>	0
<0xE1>	0
<0xE2>	0
<0xE3>	0
<0xE4>	0
<0xE5>	0
<0xE6>	0
<0xE7>	0
<0xE8>	0
<0xE9>	0
<0xEA>	0
<0xEB>	0
<0xEC>	0
<0xED>	0
<0xEE>	0
<0xEF>	0
<0xF0>	0
<0xF1>	0
<0xF2>	0
<0xF3>	0
<0xF4>	0
<0xF5>	0
<0xF6>	0
<0xF7>	0
<0xF8>	0
<0xF9>	0
<0xFA>	0
<0xFB>	0
<0xFC>	0
<0xFD>	0
<0xFE>	0
<0xFF>	0
▁क	-0
या	-1
▁स	-2
▁म	-3
्या	-4
▁प	-5
्र	-6
▁आ	-7
▁ह	-8
ार	-9
▁त	-10
▁व	-11
▁के	-12
▁द	-13
▁अ	-14
▁न	-15
▁ज	-16
र्	-17
्य	-18
ान	-19
ला	-20
▁ब	-21
ें	-22
▁र	-23
ों	-24
▁उ	-25
▁ल	-26
▁कर	-27
▁है	-28
ने	-29
ता	-30
▁प्र	-31
िक	-32
▁औ	-33
ां	-34
ले	-35
▁और	-36
▁भ	-37
ना	-38
ित	-39
▁ग	-40
▁में	-41
च्या	-42
▁को	-43
वा	-44
▁श	-45
ंत	-46
▁य	-47
ात	-48
क्	-49
्ह	-50
▁.	-51
▁की	-52
स्	-53
हे	-54
▁का	-55
▁ए	-56
▁पर	-57
▁कि	-58
▁या	-59
▁आहे	-60
▁से	-61
्व	-62
▁आण	-63
▁इ	-64
चा	-65
सा	-66
ेश	-67
ती	-68
▁आणि	-69
▁हो	-70
ली	-71
ही	-72
▁सं	-73
चे	-74
िए	-75
▁त्या	-76
ून	-77
▁वि	-78
▁रा	-79
्री	-80
ते	-81
ल्या	-82
▁एक	-83
्ट	-84
से	-85
ण्या	-86
नी	-87
ची	-88
▁दि	-89
▁लिए	-90
ोग	-91
हा	-92
▁,	-93
▁सा	-94
क्ष	-95
रा	-96
त्	-97
▁दे	-98
▁ने	-99
▁नि	-100
मा	-101
▁ख	-102
री	-103
▁जा	-104
ति	-105
ष्ट	-106
▁च	-107
ठी	-108
▁स्	-109
ंद	-110
गा	-111
▁वा	-112
▁हैं	-113
▁मा	-114
▁तु	-115
णा	-116
्रा	-117
▁भार	-118
कार	-119
▁सु	-120
▁घ	-121
साठी	-122
▁आप	-123
▁पा	-124
वर	-125
ध्य	-126
ेत	-127
▁2	-128
वि	-129
के	-130
▁इस	-131
द्	-132
िय	-133
▁सम	-134
ल्	-135
▁उन	-136
ड़	-137
▁ना	-138
▁ते	-139
▁थ	-140
का	-141
िया	-142
▁यह	-143
▁फ	-144
्ष	-145
धान	-146
ास	-147
ाने	-148
▁।	-149
ील	-150
▁कार	-151
▁मंत	-152
र्व	-153
▁राज	-154
▁अप	-155
▁मु	-156
▁तुम	-157
▁ला	-158
ोज	-159
▁जो	-160
मी	-161
▁अस	-162
▁पु	-163
▁त्यां	-164
ोक	-165
▁म्ह	-166
स्थ	-167
रे	-168
▁1	-169
प्र	-170
▁ड	-171
▁उप	-172
स्त	-173
▁देश	-174
ारी	-175
दी	-176
▁किया	-177
वी	-178
▁बा	-179
िन	-180
ंग	-181
▁मह	-182
▁20	-183
ारा	-184
ंड	-185
▁भी	-186
▁ट	-187
▁हम	-188
कर	-189
ध्ये	-190
▁झ	-191
▁करने	-192
की	-193
▁उस	-194
▁क्ष	-195
▁करण्या	-196
▁भारत	-197
्यां	-198
दा	-199
वे	-200
भा	-201
▁मि	-202
ार्	-203
सी	-204
णे	-205
▁अध	-206
ारे	-207
च्	-208
▁(	-209
▁लोक	-210
▁अन	-211
▁मो	-212
द्ध	-213
▁तो	-214
टी	-215
मध्ये	-216
▁वे	-217
▁साथ	-218
मु	-219
श्	-220
्हा	-221
▁सर	-222
ेल	-223
्रीय	-224
▁ध	-225
णी	-226
▁आज	-227
▁यां	-228
▁ये	-229
▁हे	-230
▁तर	-231
▁मी	-232
▁पू	-233
▁भा	-234
देश	-235
▁स्व	-236
▁हा	-237
हीं	-238
▁विक	-239
ैं	-240
शी	-241
▁उन्ह	-242
शा	-243
▁स्थ	-244
▁सर्व	-245
र्ष	-246
ूप	-247
▁कहा	-248
ियों	-249
र्ण	-250
▁झा	-251
तो	-252
▁उत्	-253
▁नहीं	-254
▁ले	-255
▁आहेत	-256
▁क्षेत	-257
▁दो	-258
लय	-259
▁व्य	-260
▁अधिक	-261
▁मे	-262
ंध	-263
ओं	-264
▁केले	-265
▁असे	-266
बर	-267
पा	-268
र्थ	-269
्ञ	-270
्ही	-271
▁सरकार	-272
▁नाही	-273
मान	-274
रु	-275
क्र	-276
▁परि	-277
▁ही	-278
▁केंद	-279
ळे	-280
तर	-281
ाप	-282
ांग	-283
▁राष्ट	-284
▁कु	-285
जा	-286
क्त	-287
ांना	-288
▁चा	-289
न्	-290
बा	-291
गे	-292
त्र	-293
गी	-294
र्य	-295
भी	-296
पू	-297
कि	-298
▁पह	-299
तील	-300
▁दु	-301
▁था	-302
▁क्षेत्र	-303
िर	-304
▁मैं	-305
द्य	-306
तात	-307
▁201	-308
▁अपने	-309
▁म्हण	-310
▁गया	-311
▁आम	-312
▁जि	-313
▁सह	-314
ाना	-315
▁हु	-316
्त	-317
जी	-318
▁मंत्री	-319
▁जी	-320
ढ़	-321
▁ठ	-322
▁निर्	-323
योग	-324
मेश	-325
कड	-326
प्रधान	-327
▁वह	-328
धी	-329
िम	-330
ंतप्रधान	-331
▁पंतप्रधान	-332
▁वर्ष	-333
मेश्व	-334
▁काम	-335
ंतर	-336
ोंने	-337
▁परमेश्व	-338
ाय	-339
ंत्र	-340
▁तक	-341
▁प्रधान	-342
चार	-343
खा	-344
▁लोग	-345
गर	-346
क्षा	-347
लेल्या	-348
धार	-349
णार	-350
▁द्व	-351
िती	-352
िला	-353
▁रु	-354
ूर	-355
00	-356
▁गु	-357
▁कार्य	-358
द्र	-359
गत	-360
▁उन्होंने	-361
दान	-362
▁श्री	-363
▁छ	-364
च्छ	-365
▁मंत्रा	-366
तीय	-367
मुळे	-368
जे	-369
▁अनु	-370
▁प्रति	-371
▁होते	-372
त्य	-373
बंध	-374
▁आपल्या	-375
िल	-376
ूं	-377
शे	-378
ब्	-379
▁राज्य	-380
नि	-381
ऱ्या	-382
▁“	-383
▁ती	-384
▁दिया	-385
▁रूप	-386
▁सभी	-387
सार	-388
▁जात	-389
▁आय	-390
▁माझ	-391
हर	-392
ज्ञ	-393
ोल	-394
ळा	-395
▁म्हणा	-396
ित्र	-397
ेट	-398
▁सक	-399
ांनी	-400
वास	-401
ईल	-402
ोजना	-403
सर	-404
ेव	-405
▁विकास	-406
▁बी	-407
नों	-408
ोध	-409
डी	-410
थे	-411
ोर	-412
▁मान	-413
ळी	-414
▁बन	-415
विध	-416
्म	-417
ुन	-418
ातील	-419
माण	-420
ण्यासाठी	-421
▁सि	-422
िका	-423
▁भारतीय	-424
टर	-425
पी	-426
▁-	-427
िक्ष	-428
▁गो	-429
त्व	-430
▁देख	-431
ांच्या	-432
▁नवी	-433
▁सी	-434
▁मंत्रालय	-435
▁व्या	-436
ष्	-437
▁सांग	-438
▁आव	-439
ंब	-440
▁केली	-441
ुर	-442
▁शक	-443
20	-444
ानी	-445
▁3	-446
▁लोगों	-447
▁ऐ	-448
▁सुर	-449
▁जाए	-450
स्ट	-451
▁त्यांनी	-452
▁स्वा	-453
▁पी	-454
पर	-455
ूत	-456
▁बढ़	-457
▁ओ	-458
शन	-459
▁करते	-460
द्या	-461
▁अव	-462
पास	-463
ल्ली	-464
पूर्ण	-465
हि	-466
दल	-467
▁द्वारा	-468
्यों	-469
▁ऑ	-470
▁केंद्र	-471
र्म	-472
▁होता	-473
द्योग	-474
एल	-475
▁राष्ट्र	-476
क्षण	-477
▁दिल्ली	-478
▁अभ	-479
▁करता	-480
श्य	-481
▁मोदी	-482
▁दी	-483
ेक	-484
▁गे	-485
▁हुए	-486
्यात	-487
ेंद्र	-488
▁जब	-489
▁बह	-490
▁दा	-491
";	-492
को	-493
कृ	-494
▁”	-495
▁कारण	-496
क्रम	-497
▁भू	-498
▁थे	-499
्न	-500
वन	-501
▁तू	-502
झे	-503
▁संबंध	-504
▁खा	-505
▁प्रा	-506
▁पो	-507
जन	-508
▁यांनी	-509
▁परमेश्वर	-510
▁सो	-511
▁राजा	-512
श्व	-513
ध्यम	-514
▁समा	-515
चित	-516
ण्यात	-517
दि	-518
▁म्हणून	-519
▁ऊ	-520
▁मू	-521
दे	-522
▁शा	-523
एस	-524
▁घे	-525
ल्प	-526
मंत	-527
्स	-528
▁मार्	-529
▁साम	-530
▁उसके	-531
▁तुम्ही	-532
रो	-533
र्यंत	-534
▁यु	-535
दर्	-536
19	-537
▁तसे	-538
सं	-539
▁केंद्रीय	-540
किन	-541
▁नर	-542
▁मला	-543
▁वै	-544
▁पि	-545
▁काही	-546
▁गए	-547
▁चाह	-548
▁करण्यात	-549
वस्थ	-550
▁दिव	-551
िज	-552
त्या	-553
श्यक	-554
मंत्री	-555
▁योग	-556
▁मद	-557
ौर	-558
▁जे	-559
लो	-560
वळ	-561
ांचे	-562
▁योजना	-563
लों	-564
▁शि	-565
में	-566
शेष	-567
▁तुम्ह	-568
▁लेकिन	-569
▁करण्यासाठी	-570
िट	-571
▁यहो	-572
ज्ञान	-573
▁जै	-574
▁वाढ	-575
▁नरेंद्र	-576
ुत	-577
▁5	-578
▁राष्ट्रीय	-579
▁ई	-580
▁केला	-581
▁त्यांना	-582
▁आवश्यक	-583
वेश	-584
िंग	-585
▁उनके	-586
यु	-587
बी	-588
एम	-589
ठा	-590
कडे	-591
हन	-592
▁कृ	-593
▁अपनी	-594
▁उद्	-595
▁सू	-596
▁महा	-597
क्ति	-598
▁त्यांच्या	-599
▁तसेच	-600
पाद	-601
व्हा	-602
▁कम	-603
▁भाग	-604
▁सेवा	-605
▁बना	-606
▁घर	-607
▁यांच्या	-608
▁इन	-609
टा	-610
▁आर	-611
▁क्यों	-612
▁जिस	-613
वार	-614
▁प्रत्य	-615
पासून	-616
▁गा	-617
▁बै	-618
ेंगे	-619
वाद	-620
▁हि	-621
▁ता	-622
विष	-623
▁माध्यम	-624
हत	-625
▁विशेष	-626
▁उन्हें	-627
ंज	-628
▁इस्रा	-629
करण	-630
ये	-631
ड़ा	-632
▁पास	-633
कों	-634
▁लाग	-635
डा	-636
▁लग	-637
ऊन	-638
ेर	-639
▁करा	-640
ष्टी	-641
वर्	-642
▁होती	-643
्यान	-644
▁हमारे	-645
▁भारता	-646
ग्	-647
जार	-648
▁रहा	-649
▁मिळ	-650
▁देव	-651
▁रहे	-652
▁मन	-653
▁लाभ	-654
यों	-655
वान	-656
▁रुप	-657
▁आले	-658
▁ज्या	-659
ग्र	-660
दार	-661
ोन	-662
▁पुर	-663
च्च	-664
▁बीच	-665
▁माझ्या	-666
▁शिक्ष	-667
णाऱ्या	-668
▁अर्थ	-669
▁तेव्हा	-670
ांची	-671
टन	-672
▁अब	-673
▁म्हणाले	-674
▁निय	-675
▁निर्माण	-676
▁आता	-677
▁बात	-678
▁क्योंकि	-679
ख्य	-680
▁ह्या	-681
मध	-682
▁दोन	-683
ख्या	-684
▁भर	-685
▁शु	-686
▁व्याप	-687
▁दृ	-688
▁उसे	-689
▁बे	-690
▁वित	-691
हो	-692
मि	-693
▁उत्पाद	-694
र्ग	-695
▁सब	-696
▁संस्थ	-697
ोड़	-698
▁जन	-699
▁गई	-700
िस	-701
▁लाख	-702
▁‘	-703
▁रख	-704
▁हर	-705
▁रेल	-706
हार	-707
ांचा	-708
▁हूं	-709
ंप	-710
▁करत	-711
▁घेत	-712
▁पै	-713
▁पण	-714
▁सांगित	-715
▁करना	-716
श्वास	-717
▁जाता	-718
▁इस्राएल	-719
ोत्	-720
्रे	-721
▁आम्ही	-722
▁दर	-723
▁लक्ष	-724
व्य	-725
▁प्रश	-726
▁मेरे	-727
▁खु	-728
रण	-729
▁डॉ	-730
▁नव	-731
▁4	-732
▁थी	-733
▁माह	-734
▁चाहिए	-735
▁तरह	-736
▁दूर	-737
मार	-738
▁त्याच्या	-739
▁यहोवा	-740
▁पूर्व	-741
▁दिन	-742
िप	-743
घा	-744
ूस	-745
ांत	-746
▁सुविध	-747
▁इंड	-748
▁किं	-749
▁समय	-750
▁:	-751
▁मुझे	-752
▁2020	-753
▁रह	-754
▁प्रदेश	-755
▁विचार	-756
▁प्रकार	-757
▁त्याला	-758
बत	-759
▁";	-760
▁कुछ	-761
▁राह	-762
टे	-763
▁करे	-764
▁परमेश्वरा	-765
र्जा	-766
ार्थ	-767
▁काय	-768
ुष	-769
▁झाले	-770
यी	-771
ूक	-772
भाव	-773
▁बाद	-774
ंगा	-775
▁स्ट	-776
▁मंद	-777
▁नी	-778
▁जर	-779
▁होगा	-780
▁महत्व	-781
▁मंत्र	-782
-19	-783
▁शहर	-784
▁आपण	-785
र्थिक	-786
▁प्रत्येक	-787
ंना	-788
▁मज	-789
पर्यंत	-790
▁कोई	-791
▁पहले	-792
लया	-793
▁स्थान	-794
▁जाएगा	-795
स्ता	-796
▁प्रदान	-797
▁उसने	-798
▁जीवन	-799
▁कमी	-800
यार	-801
▁जग	-802
▁बोल	-803
▁अंत	-804
▁तुझ	-805
▁ठेव	-806
भाग	-807
शि	-808
▁संक	-809
▁उद्योग	-810
नेक	-811
ुल	-812
▁कोवि	-813
▁प्रधानमंत्री	-814
▁उपल	-815
▁अनेक	-816
ातून	-817
ब्ध	-818
ोजन	-819
ोबर	-820
▁पाहि	-821
ात्र	-822
▁अम	-823
ड़ी	-824
श्चित	-825
्यांना	-826
▁माहिती	-827
पे	-828
▁स्थाप	-829
▁बहुत	-830
▁आर्थिक	-831
▁उपलब्ध	-832
▁रोज	-833
▁महिला	-834
तिक	-835
▁बि	-836
▁वाले	-837
▁येथे	-838
▁जल	-839
▁सांगितले	-840
▁समु	-841
▁बैठ	-842
डे	-843
मुख	-844
▁किए	-845
राष्ट	-846
▁सकता	-847
भर	-848
ांमध्ये	-849
▁बु	-850
ंच	-851
▁देवा	-852
▁रोग	-853
▁पार	-854
▁किंवा	-855
▁होईल	-856
▁सुधार	-857
▁अशा	-858
ड़े	-859
▁कार्या	-860
▁कह	-861
लि	-862
दारी	-863
▁विश्वास	-864
▁2018	-865
▁?	-866
▁आरोग	-867
्हाला	-868
क्ट	-869
▁2019	-870
▁पुन	-871
▁तीन	-872
हाँ	-873
▁त्याने	-874
▁उत्तर	-875
▁कार्यक्रम	-876
युक्त	-877
▁पूर्ण	-878
र्प	-879
लन	-880
▁असेल	-881
▁’	-882
▁होने	-883
▁लोकांना	-884
▁7	-885
▁रो	-886
▁6	-887
▁सुविधा	-888
▁दिवस	-889
▁अन्य	-890
्यू	-891
ुक	-892
माणे	-893
▁मार्ग	-894
▁कै	-895
▁उपयोग	-896
▁कई	-897
▁पर्य	-898
भार	-899
▁मग	-900
▁अध्य	-901
▁फिर	-902
▁आत्	-903
पट	-904
खी	-905
मिक	-906
▁C	-907
▁ति	-908
आर	-909
क्ती	-910
ंचा	-911
सान	-912
▁वाट	-913
▁तंत्र	-914
द्दल	-915
वात	-916
वल	-917
▁कॉ	-918
▁दिले	-919
म्	-920
च्छा	-921
जर	-922
▁आधार	-923
चना	-924
▁स्वत	-925
▁तुमच्या	-926
प्	-927
▁आली	-928
ृद्ध	-929
था	-930
▁भग	-931
▁ग्रा	-932
▁म्हणजे	-933
ताओं	-934
▁असल्या	-935
प्रमाणे	-936
ैन	-937
▁गोष्टी	-938
▁मुख्य	-939
▁पुढ	-940
▁संर	-941
ण्याची	-942
द्व	-943
दर	-944
▁असून	-945
▁दिली	-946
निया	-947
▁कोटी	-948
▁असा	-949
यत्	-950
▁जान	-951
▁यात	-952
▁प्राप	-953
बरोबर	-954
▁म्हणाला	-955
वस्था	-956
▁सहकार	-957
▁आरोग्य	-958
▁महत्	-959
▁स्त	-960
▁स्वच्छ	-961
बद्दल	-962
ज़	-963
▁इंडिया	-964
▁इसके	-965
▁क्र	-966
▁व्यक्त	-967
▁प्रमुख	-968
लिए	-969
नो	-970
▁मजब	-971
भव	-972
लेले	-973
▁करेगा	-974
ष्ठ	-975
▁डा	-976
ंक	-977
▁चांग	-978
िमंड	-979
▁खूप	-980
स्थ्य	-981
▁माण	-982
▁चाल	-983
ोष	-984
र्ट	-985
▁वी	-986
िकी	-987
स्य	-988
िव	-989
▁एका	-990
▁कृष	-991
▁ची	-992
▁पुत्र	-993
▁चर्	-994
▁सार	-995
▁इसलिए	-996
▁)	-997
▁करोड़	-998
धन	-999
▁स्वास्थ्य	-1000
धा	-1001
हाय	-1002
गार	-1003
्याय	-1004
टक	-1005
▁काळ	-1006
शु	-1007
▁दर्	-1008
▁यहू	-1009
▁करी	-1010
▁हाथ	-1011
वित्र	-1012
▁इतर	-1013
▁क्या	-1014
्वे	-1015
▁नागर	-1016
▁क्षम	-1017
▁प्राप्त	-1018
▁रुपये	-1019
▁सर्	-1020
▁मंज	-1021
▁रुग्	-1022
▁गर	-1023
▁अति	-1024
▁मंदिर	-1025
▁सद	-1026
▁जाते	-1027
▁प्रयत्	-1028
▁कोविड	-1029
वरण	-1030
▁राष्ट्रप	-1031
तम	-1032
▁सकते	-1033
▁प्रक	-1034
▁महत्वपूर्ण	-1035
वण	-1036
▁बो	-1037
▁करतो	-1038
▁घा	-1039
ेशन	-1040
▁अध्यक्ष	-1041
आई	-1042
▁तब	-1043
▁असलेल्या	-1044
▁मजबूत	-1045
▁सुरक्षा	-1046
▁पंतप्रधानांनी	-1047
▁दौर	-1048
▁जिन	-1049
▁विष	-1050
▁देशा	-1051
▁कार्यालय	-1052
ंच्या	-1053
र्गत	-1054
▁टा	-1055
▁अंतर	-1056
▁चार	-1057
▁नागरिक	-1058
▁मंत्रिमंड	-1059
▁झाली	-1060
▁सहयोग	-1061
▁ऊर्जा	-1062
ांस	-1063
▁बारे	-1064
ंट	-1065
शल	-1066
▁प्रयत्न	-1067
▁सुरु	-1068
▁विविध	-1069
▁मोठ	-1070
▁रही	-1071
्यांनी	-1072
▁किसी	-1073
▁बढ़ा	-1074
मे	-1075
▁स्प	-1076
▁नाम	-1077
वरी	-1078
वेळी	-1079
▁वस्त	-1080
ढा	-1081
र्त	-1082
▁पाठ	-1083
▁संबंधित	-1084
वले	-1085
▁सबसे	-1086
मिल	-1087
▁बदल	-1088
▁श्र	-1089
▁दौरान	-1090
▁मैंने	-1091
▁पवित्र	-1092
▁देखील	-1093
▁जाने	-1094
▁चे	-1095
▁बां	-1096
▁समझ	-1097
▁अवसर	-1098
▁मिल	-1099
▁नियम	-1100
यक	-1101
▁दुनिया	-1102
ात्म	-1103
▁होत	-1104
▁हवा	-1105
▁आन	-1106
यर	-1107
ंतु	-1108
000	-1109
▁आला	-1110
नात	-1111
▁मदत	-1112
▁मित्र	-1113
▁भगवान	-1114
▁व्यापार	-1115
यन	-1116
▁महाम	-1117
ुरू	-1118
▁हजार	-1119
ांसाठी	-1120
▁इसे	-1121
▁जास्त	-1122
▁कल्या	-1123
▁जु	-1124
▁जेव	-1125
▁देने	-1126
एं	-1127
वून	-1128
▁व्यक्ति	-1129
काश	-1130
▁19	-1131
▁परिष	-1132
▁केल्या	-1133
सि	-1134
▁करून	-1135
दर्श	-1136
▁पड	-1137
▁दोनों	-1138
ूल	-1139
▁लि	-1140
▁गरी	-1141
कडून	-1142
िन्न	-1143
▁वापर	-1144
वड	-1145
▁10	-1146
क्षी	-1147
▁ज्ञ	-1148
▁हमें	-1149
ूरी	-1150
भग	-1151
▁कौ	-1152
▁8	-1153
▁एम	-1154
र्स	-1155
व्या	-1156
▁मध्ये	-1157
न्न	-1158
▁विकस	-1159
▁आगे	-1160
यास	-1161
▁बार	-1162
▁चित्र	-1163
▁करेंगे	-1164
▁तरी	-1165
बाबत	-1166
▁अशी	-1167
▁स्थित	-1168
ंची	-1169
▁ओर	-1170
ID	-1171
▁करणे	-1172
स्ते	-1173
▁तुम्हाला	-1174
▁माम	-1175
शोध	-1176
▁तुझ्या	-1177
▁उनकी	-1178
जू	-1179
▁विभाग	-1180
▁संप	-1181
▁येत	-1182
▁शुरू	-1183
ेड	-1184
▁एन	-1185
▁झाला	-1186
▁चर्चा	-1187
▁सामा	-1188
▁कोण	-1189
▁तहत	-1190
▁शरी	-1191
▁9	-1192
ियन	-1193
मधील	-1194
▁क्षमता	-1195
ंदर	-1196
▁मुल	-1197
▁निर	-1198
▁निर्म	-1199
▁आवा	-1200
▁खिला	-1201
▁जैसे	-1202
▁आवश्यकता	-1203
▁विकसित	-1204
आय	-1205
ूंगा	-1206
जिक	-1207
▁निर्ण	-1208
ध्या	-1209
▁धन	-1210
39	-1211
▁आई	-1212
▁प्रभ	-1213
हास	-1214
▁फि	-1215
स्कृ	-1216
▁पहु	-1217
▁रेल्वे	-1218
▁चु	-1219
▁व्यव	-1220
▁साल	-1221
▁आया	-1222
▁लिया	-1223
▁क्षेत्रात	-1224
▁सौ	-1225
्यांच्या	-1226
ोजित	-1227
▁कल्याण	-1228
▁हुआ	-1229
▁संरक्षण	-1230
▁पाया	-1231
▁शे	-1232
▁मौ	-1233
ात्मक	-1234
▁बांध	-1235
▁उत्पादन	-1236
ृह	-1237
▁CO	-1238
▁तयार	-1239
नंतर	-1240
शील	-1241
▁आद	-1242
▁विभ	-1243
श्च	-1244
ंभ	-1245
स्कार	-1246
▁भे	-1247
▁भविष	-1248
▁निक	-1249
VID	-1250
▁संयुक्त	-1251
▁आमच्या	-1252
▁शामिल	-1253
▁सां	-1254
▁प्रोत्	-1255
▁आनंद	-1256
▁दिला	-1257
▁गरीब	-1258
ंह	-1259
पूर्व	-1260
▁सार्व	-1261
▁पे	-1262
▁प्रोत्सा	-1263
▁परिय	-1264
▁आपके	-1265
▁विभिन्न	-1266
त्ती	-1267
्रो	-1268
रिक	-1269
▁महान	-1270
▁करें	-1271
ियम	-1272
▁परियोजना	-1273
▁मूल	-1274
स्थित	-1275
▁लॉ	-1276
घाटन	-1277
▁COVID	-1278
▁कंप	-1279
▁विश्व	-1280
वाय	-1281
▁मिळा	-1282
▁युवा	-1283
▁यासाठी	-1284
पणे	-1285
▁नवीन	-1286
▁प्रक्र	-1287
इन	-1288
▁शिक्षा	-1289
▁ब्र	-1290
धे	-1291
क्षित	-1292
▁ऑफ	-1293
ाती	-1294
▁पाह	-1295
ोट	-1296
▁पाहिजे	-1297
स्प	-1298
▁संशोध	-1299
▁देशात	-1300
▁सच	-1301
▁15	-1302
▁आदि	-1303
षण	-1304
▁पद	-1305
बद्ध	-1306
▁लगभग	-1307
पुर	-1308
तन	-1309
▁ढ	-1310
कीय	-1311
▁तै	-1312
▁प्रयास	-1313
वत	-1314
▁क्षेत्रों	-1315
▁I	-1316
▁2017	-1317
ण्याचा	-1318
गतिक	-1319
▁परंतु	-1320
▁दोन्ही	-1321
▁मार	-1322
▁बनाने	-1323
&#	-1324
39;	-1325
&#39;	-1326
▁सहाय	-1327
विषयी	-1328
▁पृ	-1329
▁उच्च	-1330
ैस	-1331
ुष्य	-1332
प्त	-1333
▁परी	-1334
्ल	-1335
▁१	-1336
▁संख्या	-1337
▁माल	-1338
▁मुला	-1339
▁बस	-1340
ण्याचे	-1341
▁खिलाफ	-1342
▁टक्	-1343
▁दुस	-1344
▁पर्या	-1345
▁कराय	-1346
▁जागतिक	-1347
▁विज्ञान	-1348
▁आज्ञ	-1349
ोजने	-1350
▁आयोजित	-1351
निश्चित	-1352
▁अर्थव्य	-1353
▁हों	-1354
करी	-1355
▁जारी	-1356
ंगे	-1357
णाम	-1358
▁असते	-1359
▁सामाजिक	-1360
▁वेग	-1361
लेम	-1362
▁ट्र	-1363
▁अधिकार	-1364
णारे	-1365
▁पिछ	-1366
▁नई	-1367
▁सुनिश्चित	-1368
▁येश	-1369
▁जाती	-1370
▁;	-1371
▁नेत	-1372
जनिक	-1373
▁किसान	-1374
▁नौ	-1375
▁दृष्ट	-1376
्वी	-1377
▁प्रभाव	-1378
▁आक	-1379
खे	-1380
▁जीव	-1381
धिक	-1382
▁गां	-1383
▁कर्म	-1384
▁बच्च	-1385
▁देशों	-1386
वारी	-1387
▁अग	-1388
▁पानी	-1389
▁अपना	-1390
▁भूमि	-1391
▁सात	-1392
म्म	-1393
▁विस्त	-1394
▁हमारी	-1395
▁सार्वजनिक	-1396
ियान	-1397
▁केवल	-1398
▁येशू	-1399
ल्म	-1400
ताना	-1401
ंचे	-1402
एफ	-1403
▁करुन	-1404
ांवर	-1405
ासन	-1406
खर	-1407
▁मदद	-1408
▁शिक	-1409
▁जेव्हा	-1410
धि	-1411
▁बच्चों	-1412
▁मृ	-1413
ुसार	-1414
वासी	-1415
▁सैन	-1416
▁विद्या	-1417
▁पिता	-1418
ांड	-1419
▁केलेल्या	-1420
▁औष	-1421
▁योजने	-1422
▁तुम्हारे	-1423
शलेम	-1424
▁चौ	-1425
▁वर	-1426
क्षम	-1427
▁यो	-1428
▁देता	-1429
▁भागी	-1430
▁कान	-1431
ळ्या	-1432
मो	-1433
▁कर्	-1434
▁आस	-1435
द्वारे	-1436
चन	-1437
कारी	-1438
▁प्रशिक्ष	-1439
होत	-1440
▁उद्देश	-1441
▁योग्य	-1442
फा	-1443
▁आए	-1444
▁देण्यात	-1445
▁संपूर्ण	-1446
▁प्रसार	-1447
▁आहोत	-1448
राष्ट्रीय	-1449
ित्	-1450
▁उपाय	-1451
▁परिणाम	-1452
▁बाहर	-1453
▁त्याचे	-1454
ेंट	-1455
▁पूरा	-1456
पूर	-1457
▁आपले	-1458
क्स	-1459
मीण	-1460
▁प्रकल्प	-1461
ध्	-1462
▁घोष	-1463
▁संघ	-1464
र्क	-1465
▁प्रे	-1466
चल	-1467
ज्	-1468
▁मंत्रालया	-1469
▁तुला	-1470
▁महारा	-1471
▁यहाँ	-1472
हित	-1473
▁झाल्या	-1474
▁संब	-1475
ंबई	-1476
▁आदमी	-1477
▁बता	-1478
▁झालेल्या	-1479
▁ऐक	-1480
▁वृद्ध	-1481
▁निर्णय	-1482
▁होतो	-1483
▁असल्याचे	-1484
वक	-1485
▁यात्रा	-1486
हरा	-1487
▁दक्ष	-1488
▁प्रग	-1489
▁शेत	-1490
▁उसकी	-1491
▁अनुसार	-1492
एन	-1493
▁दाख	-1494
▁आज्ञा	-1495
▁अल	-1496
▁घेऊन	-1497
▁परिवार	-1498
▁दूस	-1499
▁इत	-1500
▁बैठक	-1501
ग्रह	-1502
▁जवळ	-1503
▁टी	-1504
▁12	-1505
▁गुजर	-1506
ंनी	-1507
▁ग्रामीण	-1508
ाते	-1509
▁डिज	-1510
ंदा	-1511
तिहास	-1512
▁प्रौ	-1513
तीने	-1514
▁पृथ	-1515
▁नाहीत	-1516
्याने	-1517
▁आंतर	-1518
एँ	-1519
▁वन	-1520
ेंबर	-1521
ब्द	-1522
ापन	-1523
▁मै	-1524
र्ड	-1525
टु	-1526
शिया	-1527
▁तेल	-1528
▁गेल्या	-1529
▁गति	-1530
▁प्रमाण	-1531
▁फिल्म	-1532
सम	-1533
▁प्रक्रिया	-1534
भे	-1535
▁याह	-1536
पै	-1537
▁करु	-1538
▁इं	-1539
▁चिक	-1540
▁पृथ्वी	-1541
▁भूम	-1542
▁स्वी	-1543
▁होणार	-1544
रुष	-1545
▁गर्	-1546
्याच्या	-1547
▁संधी	-1548
▁चल	-1549
▁हिस्	-1550
▁शरीर	-1551
▁वित्त	-1552
▁जाईल	-1553
ट्ट	-1554
▁अला	-1555
देशी	-1556
▁तंत्रज्ञान	-1557
▁नदी	-1558
▁संबोध	-1559
त्ता	-1560
वरील	-1561
▁मुंबई	-1562
िटल	-1563
▁गेले	-1564
▁सुरू	-1565
▁पिछले	-1566
मक	-1567
▁प्रौद्योग	-1568
▁मेरी	-1569
▁यदि	-1570
▁पाप	-1571
▁मर	-1572
्यता	-1573
▁एव	-1574
▁हुई	-1575
म्यान	-1576
ंती	-1577
मीटर	-1578
▁भूमिका	-1579
भूत	-1580
िता	-1581
▁योगदान	-1582
▁उपस्थित	-1583
▁भाव	-1584
▁किलो	-1585
▁आपको	-1586
▁यहूदा	-1587
▁सामने	-1588
रू	-1589
▁घड	-1590
राष्ट्र	-1591
▁रुग्ण	-1592
मार्	-1593
सु	-1594
ण्याच्या	-1595
▁कुटु	-1596
▁लो	-1597
▁पुरस्कार	-1598
▁येईल	-1599
साय	-1600
▁नए	-1601
▁रक्त	-1602
▁अं	-1603
▁उठ	-1604
मान्य	-1605
▁करू	-1606
▁समस	-1607
ासा	-1608
▁शां	-1609
▁गृह	-1610
▁यावेळी	-1611
्ड	-1612
मन	-1613
▁व्हा	-1614
झा	-1615
,000	-1616
▁चि	-1617
▁प्रयोग	-1618
▁भेट	-1619
पेक्षा	-1620
▁ध्यान	-1621
नाथ	-1622
▁आध	-1623
▁राज्यों	-1624
▁अलावा	-1625
▁सफ	-1626
टना	-1627
▁मुलगा	-1628
▁डि	-1629
▁याज	-1630
यू	-1631
▁आठ	-1632
▁अगर	-1633
▁सूचना	-1634
ल्ले	-1635
▁च्या	-1636
▁परिवर्	-1637
▁विकासा	-1638
ॉल	-1639
र्च	-1640
इल	-1641
▁वाली	-1642
पाल	-1643
▁मूर्	-1644
▁पुन्हा	-1645
▁समावेश	-1646
शत	-1647
तियों	-1648
▁आयोग	-1649
यं	-1650
),	-1651
पु	-1652
▁महत्वा	-1653
सह	-1654
▁हमने	-1655
ूह	-1656
▁पीएम	-1657
▁बाजार	-1658
▁सचिव	-1659
▁रोजगार	-1660
स्त्र	-1661
▁डिजिटल	-1662
▁देखा	-1663
▁पुरुष	-1664
▁मध	-1665
▁धोर	-1666
▁जोड	-1667
▁शब्द	-1668
▁एकत्र	-1669
▁छो	-1670
▁जय	-1671
▁वर्षों	-1672
▁फे	-1673
▁!	-1674
▁प्रणा	-1675
▁व्यक्ती	-1676
▁लोकांनी	-1677
▁करण्याची	-1678
ोव	-1679
नीय	-1680
▁न्याय	-1681
▁पुढे	-1682
▁समाज	-1683
लक	-1684
▁काढ	-1685
राम	-1686
▁दिस	-1687
▁पत्	-1688
▁ठिका	-1689
▁व्यवस्थ	-1690
▁कृषि	-1691
▁प्रकाश	-1692
▁मंड	-1693
▁पर्यटन	-1694
▁गुंत	-1695
▁सरकारने	-1696
▁ठर	-1697
▁समझौ	-1698
पण	-1699
▁अभि	-1700
▁यहां	-1701
▁भविष्य	-1702
▁स्थापित	-1703
▁निवड	-1704
▁शक्ति	-1705
▁मत	-1706
▁बंद	-1707
▁चित्रपट	-1708
▁राष्ट्रपति	-1709
▁भारतात	-1710
▁आह	-1711
▁करीत	-1712
▁ऐसा	-1713
▁दक्षि	-1714
फी	-1715
▁केवळ	-1716
▁सिंह	-1717
▁बाब	-1718
▁उद्या	-1719
▁किलोमीटर	-1720
▁त्याचा	-1721
▁मानव	-1722
▁पूरी	-1723
▁त्यांचे	-1724
▁महाराष्ट	-1725
▁कोणी	-1726
▁माझे	-1727
हेर	-1728
▁बढ़ावा	-1729
शय	-1730
▁प्रौद्योगिकी	-1731
▁रक्षा	-1732
▁प्रभु	-1733
खंड	-1734
▁मामलों	-1735
▁मात्र	-1736
▁प्रोत्साहन	-1737
▁मोठ्या	-1738
▁आत	-1739
▁स्तर	-1740
▁अड	-1741
िक्स	-1742
▁आत्मा	-1743
▁सर्वात	-1744
दर्शन	-1745
▁होगी	-1746
▁मनुष्य	-1747
▁जिसमें	-1748
▁समर्थ	-1749
▁गुंतवण	-1750
▁संदेश	-1751
▁समुद्र	-1752
खाली	-1753
पैकी	-1754
▁सोड	-1755
▁२	-1756
जवळ	-1757
▁नव्ह	-1758
ूट	-1759
▁लगा	-1760
थील	-1761
▁पर्व	-1762
्यास	-1763
▁उद्य	-1764
▁पहि	-1765
▁टक्के	-1766
▁बेट	-1767
ोप	-1768
द्धा	-1769
▁संशोधन	-1770
▁तैयार	-1771
▁प्रेर	-1772
▁शोध	-1773
च्चे	-1774
जों	-1775
▁करतात	-1776
यला	-1777
▁ग्र	-1778
▁निर्मिती	-1779
▁वं	-1780
इट	-1781
वणी	-1782
▁डी	-1783
▁प्रशिक्षण	-1784
निर्	-1785
▁सीमा	-1786
▁M	-1787
▁माध्यमातून	-1788
ण्यास	-1789
▁क्षेत्रा	-1790
ुरी	-1791
▁पर्यंत	-1792
▁जाना	-1793
▁विस्तार	-1794
▁संस्था	-1795
वली	-1796
▁सक्षम	-1797
▁अर्थव्यवस्था	-1798
इयों	-1799
▁संग	-1800
▁परत	-1801
रिक्त	-1802
लब	-1803
ुट	-1804
▁संस	-1805
▁खरे	-1806
भागी	-1807
▁परिषद	-1808
▁नस	-1809
▁दौ	-1810
बे	-1811
न्स	-1812
ल्ला	-1813
▁आंतरराष्ट्रीय	-1814
लाव	-1815
▁प्रतिनि	-1816
त्वा	-1817
तीत	-1818
ेंस	-1819
▁मंजूरी	-1820
▁तुम्हें	-1821
▁खो	-1822
▁गुजरात	-1823
▁गांधी	-1824
▁मार्च	-1825
▁बंध	-1826
▁प्रवेश	-1827
▁बल्	-1828
▁कधी	-1829
ल्लेख	-1830
▁11	-1831
▁व्यवस्था	-1832
▁उल्लेख	-1833
ांनो	-1834
▁कृषी	-1835
▁वास्त	-1836
▁संबोधित	-1837
▁प्रणाली	-1838
ॉन	-1839
▁सहकार्य	-1840
▁भारताच्या	-1841
▁आने	-1842
▁30	-1843
▁निश्चित	-1844
▁आत्म	-1845
राज	-1846
राष्ट्रप	-1847
▁माझा	-1848
क्षीय	-1849
▁देशातील	-1850
▁कुटुंब	-1851
हरी	-1852
▁होऊ	-1853
▁टे	-1854
क्टर	-1855
▁कुल	-1856
▁अधिकारी	-1857
▁जून	-1858
▁समर्प	-1859
▁रे	-1860
▁जोर	-1861
▁कहते	-1862
▁बँ	-1863
▁परमेश्वराने	-1864
ंस	-1865
▁आपल्याला	-1866
दय	-1867
▁पश्च	-1868
▁वैश्व	-1869
ैल	-1870
▁बनाया	-1871
▁नाव	-1872
▁करो	-1873
ऱ्यां	-1874
▁महाराष्ट्र	-1875
▁ताकि	-1876
तु	-1877
▁तुल	-1878
▁पाणी	-1879
▁भागीदारी	-1880
▁कप	-1881
▁गरज	-1882
▁&#39;	-1883
▁उठा	-1884
▁रुपया	-1885
▁करारा	-1886
गरी	-1887
▁समस्या	-1888
रावर	-1889
▁सुरक्षित	-1890
मीन	-1891
लाई	-1892
▁यामुळे	-1893
▁आयु	-1894
▁अन्न	-1895
▁जाऊ	-1896
▁शकतो	-1897
▁अनुभव	-1898
▁वेळ	-1899
▁सम्	-1900
an	-1901
▁बैं	-1902
▁दिनों	-1903
▁अच्छ	-1904
▁जिन्ह	-1905
ातल्या	-1906
▁उपराष्ट्रप	-1907
▁P	-1908
▁वैश्विक	-1909
▁नंतर	-1910
▁महामारी	-1911
▁वार	-1912
▁तेथे	-1913
▁दोस्त	-1914
▁24	-1915
▁जिल	-1916
स्थिती	-1917
▁आधारित	-1918
▁याहवे	-1919
▁त्यांची	-1920
▁एखा	-1921
णारा	-1922
▁कोरो	-1923
▁25	-1924
स्थान	-1925
वला	-1926
▁शौ	-1927
िरा	-1928
▁देण्यासाठी	-1929
ब्र	-1930
▁प्रार्थ	-1931
▁फा	-1932
▁18	-1933
▁प्रस्ता	-1934
पणा	-1935
▁लागू	-1936
▁मुद्	-1937
▁स्थिति	-1938
हून	-1939
-1	-1940
कडा	-1941
यल	-1942
▁आणखी	-1943
▁करार	-1944
▁निवेश	-1945
ांच	-1946
देख	-1947
▁बेह	-1948
ित्त	-1949
ानों	-1950
▁पार्	-1951
कट	-1952
मेंट	-1953
▁करणार	-1954
▁साध	-1955
▁नियंत्र	-1956
▁याजक	-1957
बल	-1958
▁काळात	-1959
ुनिक	-1960
▁याद	-1961
▁गेला	-1962
▁नये	-1963
▁मृत्य	-1964
तों	-1965
श्र	-1966
▁चिकित्	-1967
▁स्थापना	-1968
मीर	-1969
▁विमान	-1970
ंबा	-1971
▁राम	-1972
▁व्यवहार	-1973
▁गुण	-1974
▁मध्य	-1975
▁मही	-1976
▁जन्	-1977
▁रेलवे	-1978
▁नगर	-1979
▁पं	-1980
▁होंगे	-1981
ांला	-1982
▁दावी	-1983
काम	-1984
▁14	-1985
▁खुद	-1986
▁पुरव	-1987
▁टाक	-1988
▁बहु	-1989
बि	-1990
लेली	-1991
▁प्रभा	-1992
▁परीक्षण	-1993
▁जिसे	-1994
▁परा	-1995
तून	-1996
▁समार	-1997
▁उपचार	-1998
▁बढ़ाने	-1999
▁पहा	-2000
▁कौशल	-2001
▁बद	-2002
▁एस	-2003
ँच	-2004
▁बाहेर	-2005
कृत	-2006
्ला	-2007
▁नेतृ	-2008
▁त्याची	-2009
▁दू	-2010
▁संस्कृ	-2011
▁बच्चे	-2012
▁तथा	-2013
▁घोषणा	-2014
▁परिवर्तन	-2015
▁समुदा	-2016
▁उद्घाटन	-2017
▁शिक्षण	-2018
▁"	-2019
▁माग	-2020
ध्द	-2021
▁वित्	-2022
▁प्रार्थना	-2023
▁अभियान	-2024
▁द्या	-2025
तंत्र	-2026
दन	-2027
▁दक्षिण	-2028
▁संकल्प	-2029
▁स्वागत	-2030
▁मिशन	-2031
ेशा	-2032
▁पालन	-2033
▁ऊपर	-2034
हान	-2035
▁अमेर	-2036
▁समृद्ध	-2037
▁सामान्य	-2038
▁वृद्धि	-2039
▁व्यापक	-2040
ात्	-2041
▁सध्या	-2042
ियाँ	-2043
▁बड़ी	-2044
▁स्वीकार	-2045
▁स्मार	-2046
लं	-2047
ोड	-2048
▁यश	-2049
▁रोजी	-2050
▁समान	-2051
▁वित्तीय	-2052
▁राष्ट्रपती	-2053
▁ज्ञान	-2054
वाह	-2055
▁पत्र	-2056
▁पद्ध	-2057
▁उत्प	-2058
लू	-2059
विक	-2060
िड	-2061
▁सरकारी	-2062
▁वर्त	-2063
▁फाय	-2064
▁13	-2065
▁शांति	-2066
▁समर्थन	-2067
मती	-2068
▁इच्छा	-2069
▁वचन	-2070
▁पेट	-2071
ियो	-2072
कु	-2073
▁सप	-2074
दम	-2075
▁50	-2076
▁संसा	-2077
▁`	-2078
▁देते	-2079
क्रमा	-2080
▁वाहत	-2081
▁पूरे	-2082
▁सहभागी	-2083
▁करायला	-2084
▁भावना	-2085
▁मूल्य	-2086
▁दृष्टी	-2087
डू	-2088
ार्ट	-2089
▁पाच	-2090
▁बच	-2091
▁कला	-2092
रों	-2093
टले	-2094
ंसा	-2095
▁चिकित्सा	-2096
▁जैसा	-2097
▁हवाई	-2098
ज्ञानिक	-2099
▁S	-2100
▁संत	-2101
▁करण्याचे	-2102
▁धोरण	-2103
▁संचा	-2104
▁बल्कि	-2105
▁सदस्य	-2106
रिया	-2107
▁त्यामुळे	-2108
▁अह	-2109
▁त्याच	-2110
ढे	-2111
▁करती	-2112
नाच्या	-2113
▁संवाद	-2114
▁रुग्णा	-2115
▁सम्म	-2116
▁एल	-2117
ईट	-2118
▁दोस्तों	-2119
ांक	-2120
लेला	-2121
▁तुझे	-2122
शिष्ट	-2123
▁आयोजन	-2124
ूण	-2125
▁व्ह	-2126
देखील	-2127
▁स्वयं	-2128
काळ	-2129
भात	-2130
▁सम्मान	-2131
▁शै	-2132
▁आजार	-2133
▁आल्या	-2134
ष्ट्रीय	-2135
▁रात	-2136
▁सग	-2137
▁देत	-2138
▁अर्प	-2139
▁उसका	-2140
्राष्ट्रीय	-2141
ड़क	-2142
भू	-2143
शान	-2144
मत	-2145
▁त्व	-2146
▁यरु	-2147
▁एप्र	-2148
ोह	-2149
▁प्रभावी	-2150
काल	-2151
नुसार	-2152
▁येथील	-2153
▁वर्षात	-2154
ड़ों	-2155
▁अफ	-2156
▁येणार	-2157
▁सुल	-2158
सव	-2159
▁रि	-2160
ऱ्यांना	-2161
▁किसानों	-2162
▁कंपन	-2163
▁अर्	-2164
▁आकर्ष	-2165
▁शत्र	-2166
▁करतील	-2167
िज्य	-2168
▁पर्यावरण	-2169
सिद्ध	-2170
िपक्षीय	-2171
▁आपला	-2172
▁डो	-2173
ेलन	-2174
▁सत	-2175
▁अंग	-2176
▁सरा	-2177
▁भाष	-2178
णिज्य	-2179
▁अंम	-2180
▁घेतला	-2181
▁अंतर्राष्ट्रीय	-2182
▁कल	-2183
▁प्रस्ताव	-2184
वेत	-2185
▁त्यांचा	-2186
नेट	-2187
▁आशा	-2188
▁मना	-2189
▁हस्ता	-2190
▁वृ	-2191
णीय	-2192
विले	-2193
क्रिय	-2194
▁पोहो	-2195
स्क	-2196
▁उपक्रम	-2197
▁पड़	-2198
▁बड़े	-2199
▁कोरोना	-2200
▁विद्यार्थ	-2201
▁नका	-2202
▁जनते	-2203
▁A	-2204
▁शी	-2205
▁इथे	-2206
▁खास	-2207
▁पक्ष	-2208
स्ती	-2209
▁फार	-2210
ांशी	-2211
▁मिळेल	-2212
ाच्या	-2213
्याला	-2214
▁स्पर्	-2215
▁अधिका	-2216
सिक	-2217
▁लव	-2218
▁खात	-2219
कू	-2220
रोध	-2221
▁स्वच्छता	-2222
▁नीति	-2223
।";	-2224
क्षे	-2225
▁मेरा	-2226
▁दुष्ट	-2227
▁दिल	-2228
▁आपली	-2229
ोर्ट	-2230
▁स्वतंत्र	-2231
▁वाणिज्य	-2232
▁100	-2233
▁चाच	-2234
▁वैज्ञानिक	-2235
▁द्विपक्षीय	-2236
▁महिन	-2237
▁वाच	-2238
ोरे	-2239
▁बनाए	-2240
▁मंजुरी	-2241
▁स्वर्ग	-2242
▁समर्पित	-2243
▁21	-2244
▁जंग	-2245
▁सहायता	-2246
▁निर्देश	-2247
▁नीचे	-2248
▁तकनी	-2249
ंबर	-2250
बाद	-2251
▁दिशा	-2252
▁शेतक	-2253
▁कानून	-2254
बंधन	-2255
▁ठे	-2256
▁चुन	-2257
▁देशाच्या	-2258
▁लक्षात	-2259
मू	-2260
▁निका	-2261
▁नष्ट	-2262
▁उत्तम	-2263
पान	-2264
▁पायाभूत	-2265
वण्यासाठी	-2266
ठे	-2267
▁-19	-2268
▁नाश	-2269
▁खर्च	-2270
▁धन्य	-2271
▁डे	-2272
▁बेहतर	-2273
▁शांत	-2274
▁छात्र	-2275
▁आग	-2276
▁बरे	-2277
▁सम्मेलन	-2278
▁पेश	-2279
▁अज	-2280
▁सफल	-2281
दर्शक	-2282
▁भोजन	-2283
▁वाईट	-2284
श्वर	-2285
▁रखा	-2286
▁हात	-2287
▁सुंदर	-2288
▁खरी	-2289
▁संदर्	-2290
▁मात	-2291
▁ट्रे	-2292
▁होना	-2293
▁सकती	-2294
ळख	-2295
▁पहल	-2296
▁बुन	-2297
शिवाय	-2298
पूर्वी	-2299
▁परिषदे	-2300
▁मित्रांनो	-2301
▁आम्हाला	-2302
ल्स	-2303
in	-2304
िश	-2305
▁बचा	-2306
▁याचा	-2307
किंग	-2308
▁विन	-2309
▁निम	-2310
ar	-2311
िरी	-2312
▁दुर्	-2313
▁अतिरिक्त	-2314
▁इससे	-2315
▁दुसऱ्या	-2316
ृत	-2317
▁ऐसे	-2318
कर्	-2319
▁यांना	-2320
▁देवाने	-2321
▁202	-2322
सो	-2323
वाई	-2324
▁पोर्ट	-2325
▁16	-2326
ल्ड	-2327
▁वैद्य	-2328
▁कोणत्या	-2329
▁म्हटले	-2330
▁अंतर्गत	-2331
णारी	-2332
▁जन्म	-2333
ंदी	-2334
्यांची	-2335
▁चांगले	-2336
▁लक्ष्य	-2337
▁उद्देश्य	-2338
▁खे	-2339
▁सुधारणा	-2340
▁N	-2341
▁देगा	-2342
▁यरुशलेम	-2343
▁भु	-2344
ज्ञाना	-2345
▁एवं	-2346
▁वर्ग	-2347
▁पश्चिम	-2348
ज्ज	-2349
▁सश	-2350
▁बताया	-2351
▁लॉकडा	-2352
▁दरम्यान	-2353
▁संकट	-2354
▁सन्	-2355
▁न्या	-2356
▁नेह	-2357
▁करण्याच्या	-2358
ैर	-2359
वू	-2360
ंद्र	-2361
न्फ	-2362
▁बड़ा	-2363
▁वर्	-2364
▁प्रतिबद्ध	-2365
▁औषध	-2366
▁'	-2367
स्वी	-2368
▁बाल	-2369
चीन	-2370
▁बैठकी	-2371
उन	-2372
वहन	-2373
रुद्ध	-2374
▁बुद्ध	-2375
रित	-2376
म्मू	-2377
्यावर	-2378
▁पोहोच	-2379
पन	-2380
▁वर्तमान	-2381
▁मुक्त	-2382
▁मंत्रिमंडळ	-2383
ंतर्गत	-2384
▁एफ	-2385
▁अत्य	-2386
▁अतिशय	-2387
▁करण्याचा	-2388
▁कैसे	-2389
▁प्रसिद्ध	-2390
▁मिस	-2391
▁समझौता	-2392
▁स्पष्ट	-2393
ियादी	-2394
▁सामना	-2395
▁संपर्क	-2396
▁पौ	-2397
स्तान	-2398
▁यी	-2399
▁वाप	-2400
▁बुनियादी	-2401
▁इसका	-2402
▁घेतली	-2403
दों	-2404
्रिक	-2405
▁यीशु	-2406
्यांमध्ये	-2407
▁1.	-2408
▁युद्ध	-2409
▁ऑन	-2410
चर	-2411
मारे	-2412
▁समाधान	-2413
▁ऋ	-2414
र्फ	-2415
▁समज	-2416
▁पहुंच	-2417
कारात्मक	-2418
जावणी	-2419
्याचा	-2420
▁पर्यटक	-2421
▁प्रयोगशा	-2422
▁दिवशी	-2423
▁सला	-2424
▁सहित	-2425
▁चुनौ	-2426
▁तल	-2427
लबजावणी	-2428
▁तेरा	-2429
▁जरूर	-2430
▁प्रेम	-2431
ळून	-2432
ुकी	-2433
▁17	-2434
▁लेने	-2435
▁गिर	-2436
▁वैद्यकीय	-2437
▁छोड़	-2438
स्पर	-2439
▁मिला	-2440
▁पाहिले	-2441
लीन	-2442
शेने	-2443
▁नेहमी	-2444
▁पूर्वी	-2445
▁ठिकाणी	-2446
▁मंत्रिमंडल	-2447
▁क्षेत्रातील	-2448
चीत	-2449
▁बिना	-2450
▁पहिल्या	-2451
श्मीर	-2452
▁लघ	-2453
▁चला	-2454
▁करके	-2455
▁अंमलबजावणी	-2456
▁समूह	-2457
ष्क	-2458
▁हृ	-2459
▁जम्मू	-2460
▁रखने	-2461
▁आवाहन	-2462
▁धो	-2463
▁असतो	-2464
▁नेतृत्व	-2465
एच	-2466
▁आयुष	-2467
▁असतात	-2468
▁हमेशा	-2469
सारख्या	-2470
दू	-2471
▁दूसरे	-2472
एसटी	-2473
▁दया	-2474
▁असो	-2475
▁रंग	-2476
▁एकूण	-2477
▁करीन	-2478
▁तुम्हांला	-2479
▁दर्श	-2480
▁उससे	-2481
▁विभा	-2482
्यांचे	-2483
वृ	-2484
▁आधुनिक	-2485
▁कदम	-2486
▁अभ्यास	-2487
▁अधिकारियों	-2488
णासाठी	-2489
▁मॉ	-2490
▁स्टार्ट	-2491
▁परियोजनाओं	-2492
सू	-2493
▁उदा	-2494
्रि	-2495
▁नवा	-2496
▁देशभर	-2497
▁उत्पन्न	-2498
▁सामंज	-2499
▁ओळख	-2500
▁घाल	-2501
▁महीने	-2502
▁बातचीत	-2503
▁प्या	-2504
▁0	-2505
▁एप्रिल	-2506
▁इत्या	-2507
▁गण	-2508
▁सके	-2509
▁मध्यम	-2510
▁मुद	-2511
▁निधी	-2512
▁वें	-2513
▁अभिन	-2514
▁लवकर	-2515
▁परिस्थिती	-2516
▁बिज	-2517
▁खाली	-2518
▁जगा	-2519
▁लागत	-2520
▁नुक	-2521
हां	-2522
▁उत्त	-2523
बाब	-2524
▁अप्र	-2525
▁सूर्य	-2526
▁अध्यक्षता	-2527
्ले	-2528
▁आव्ह	-2529
ंख	-2530
जें	-2531
ऊद	-2532
▁शकते	-2533
▁इतिहास	-2534
▁प्रयासों	-2535
▁सामंजस्य	-2536
▁मिले	-2537
गड	-2538
▁निर्यात	-2539
▁लाभार्थ	-2540
वाल	-2541
▁आहात	-2542
िनी	-2543
▁जिल्ह	-2544
▁पैदा	-2545
▁ताक	-2546
▁सेना	-2547
टल	-2548
▁सुमारे	-2549
▁उद्‌	-2550
अंतर्गत	-2551
-20	-2552
वाब	-2553
▁माझी	-2554
नाव	-2555
▁आँ	-2556
▁सौर	-2557
मार्ग	-2558
▁करताना	-2559
र्ति	-2560
▁दिखा	-2561
▁नव्या	-2562
थी	-2563
▁गुंतवणूक	-2564
मधून	-2565
▁उदाहर	-2566
्याची	-2567
▁खेल	-2568
▁हित	-2569
धान्य	-2570
▁पता	-2571
▁दाऊद	-2572
▁जगह	-2573
दिष्ट	-2574
▁धर्म	-2575
ड़ने	-2576
▁मोठी	-2577
ंदन	-2578
▁200	-2579
▁मोठे	-2580
ंमध्ये	-2581
▁जहा	-2582
▁महिलाओं	-2583
केल	-2584
ेक्षा	-2585
▁वेळी	-2586
संद	-2587
▁यू	-2588
▁सक्रिय	-2589
चान	-2590
अप	-2591
▁शिखर	-2592
वर्धन	-2593
▁प्रबंधन	-2594
सल	-2595
▁जमीन	-2596
▁प्राचीन	-2597
ोगे	-2598
▁कठ	-2599
क्क	-2600
▁वस्तू	-2601
▁नियंत्रण	-2602
▁सेवक	-2603
सत	-2604
▁यरू	-2605
▁राहि	-2606
ल्क	-2607
विद्या	-2608
▁आशी	-2609
थमिक	-2610
▁करावे	-2611
▁कार्यान	-2612
वर्ष	-2613
▁जहां	-2614
▁तंत्रज्ञाना	-2615
▁साझा	-2616
▁असतील	-2617
▁दिल्या	-2618
णाच्या	-2619
▁करणाऱ्या	-2620
▁शासन	-2621
▁कार्यान्व	-2622
हीत	-2623
्याह	-2624
▁घ्या	-2625
▁दावीद	-2626
▁प्राथमिक	-2627
▁आधी	-2628
▁अच्छा	-2629
▁सुन	-2630
▁जुल	-2631
▁प्रश्	-2632
▁निवास	-2633
सारखे	-2634
▁तेजी	-2635
▁भाइयों	-2636
धारित	-2637
▁श्रे	-2638
ुओं	-2639
▁तत्	-2640
▁प्रकारे	-2641
▁प्रगति	-2642
▁नों	-2643
▁हिस्सा	-2644
▁मोठा	-2645
▁यरूशलेम	-2646
▁जाणार	-2647
▁दें	-2648
ांब	-2649
तिहासिक	-2650
साद	-2651
▁प्रगती	-2652
▁लाल	-2653
▁वाता	-2654
णाला	-2655
▁स्म	-2656
▁वाहतूक	-2657
▁प्रतिशत	-2658
▁यांचे	-2659
▁मान्यता	-2660
्याचे	-2661
▁उनका	-2662
ईन	-2663
▁खुशी	-2664
▁विज	-2665
णू	-2666
▁बधा	-2667
▁आलेल्या	-2668
▁आशीर्	-2669
▁जाएगी	-2670
▁रण	-2671
लाइन	-2672
▁दृष्टिक	-2673
▁ऐतिहासिक	-2674
▁अवधि	-2675
स्कृतिक	-2676
▁दृष्टि	-2677
▁सरकारच्या	-2678
ग्री	-2679
▁बधाई	-2680
▁``	-2681
▁होतील	-2682
▁टन	-2683
▁डाल	-2684
▁आपकी	-2685
▁ज्ञापन	-2686
▁भ्र	-2687
▁शकत	-2688
लेक्ट	-2689
‍या	-2690
खित	-2691
▁सदस	-2692
▁मांस	-2693
▁घरा	-2694
▁सड़क	-2695
००	-2696
▁वंश	-2697
ेच्या	-2698
▁माणसा	-2699
▁ईश्वर	-2700
▁करील	-2701
▁रहने	-2702
▁महि	-2703
▁सैनिक	-2704
▁पुढील	-2705
▁कॅ	-2706
▁शकतात	-2707
▁परिवहन	-2708
▁अच्छी	-2709
ोम	-2710
▁गड	-2711
▁आवाज	-2712
▁संगठ	-2713
वण्यात	-2714
▁हाला	-2715
▁गौर	-2716
▁सकारात्मक	-2717
▁जयंती	-2718
ैंड	-2719
▁जल्	-2720
▁पीछ	-2721
▁नियमित	-2722
▁शक्य	-2723
▁उद्‌घाटन	-2724
▁चांगल्या	-2725
▁प्रवास	-2726
▁सिर	-2727
▁जुलै	-2728
▁केंद्रित	-2729
गु	-2730
हरे	-2731
क्षर	-2732
▁अथ	-2733
ूँ	-2734
ंता	-2735
▁सें	-2736
▁गुणव	-2737
▁उदाहरण	-2738
▁वेदी	-2739
्रास	-2740
▁यावर	-2741
▁इसी	-2742
▁फ्र	-2743
▁उभार	-2744
▁सांस्कृतिक	-2745
ांज	-2746
▁31	-2747
▁बैंक	-2748
▁आशीर्वाद	-2749
▁2016	-2750
ोस	-2751
▁कभी	-2752
▁मौजू	-2753
▁प्रसारण	-2754
▁प्रदर्शन	-2755
▁न्याया	-2756
▁इलेक्ट	-2757
▁इत्यादी	-2758
ेद	-2759
▁पट	-2760
वाला	-2761
▁पदार्थ	-2762
म्मी	-2763
▁माणूस	-2764
.0	-2765
▁रू	-2766
▁अस्प	-2767
▁आहेस	-2768
्यांवर	-2769
▁छोटे	-2770
डिया	-2771
्यांचा	-2772
▁कार्यक्रमा	-2773
▁वितरण	-2774
▁भागात	-2775
िमित्त	-2776
▁गं	-2777
▁कामा	-2778
दु	-2779
▁डॉक्टर	-2780
▁प्रशंसा	-2781
▁इथ	-2782
▁कळ	-2783
भाल	-2784
▁दश	-2785
▁समी	-2786
यां	-2787
संधान	-2788
▁गंगा	-2789
▁प्रतिक	-2790
▁वाटते	-2791
ीन	-2792
क्शन	-2793
▁नोंद	-2794
िष्ठ	-2795
▁व्याव	-2796
▁किन	-2797
▁अनुसंधान	-2798
ंगी	-2799
▁खाद्य	-2800
▁अलग	-2801
▁पॅ	-2802
ग्रहा	-2803
▁शहरों	-2804
एगा	-2805
▁कल्प	-2806
▁जातो	-2807
-2	-2808
ियां	-2809
▁यांचा	-2810
▁कोणत्याही	-2811
शाली	-2812
▁उद्दिष्ट	-2813
▁उम्मी	-2814
▁राहा	-2815
ताल	-2816
▁हाल	-2817
▁करेल	-2818
टने	-2819
▁तुलना	-2820
▁गतिविध	-2821
at	-2822
▁येते	-2823
▁लोकां	-2824
.5	-2825
▁फै	-2826
रत	-2827
▁जिसके	-2828
▁तुमचा	-2829
▁धन्यवाद	-2830
ोब	-2831
हना	-2832
▁शक्ती	-2833
▁उपकरण	-2834
भीर	-2835
हिम	-2836
▁पोह	-2837
▁कट	-2838
▁गि	-2839
▁उनसे	-2840
▁पुस्त	-2841
▁आपू	-2842
▁किती	-2843
▁एखाद्या	-2844
▁22	-2845
ष्टा	-2846
▁सर्वे	-2847
▁स्वतः	-2848
▁समारोह	-2849
वों	-2850
गिरी	-2851
▁गुरु	-2852
▁फक्त	-2853
▁विषय	-2854
▁महोत्	-2855
ल्पा	-2856
▁वाला	-2857
▁लघु	-2858
साथ	-2859
क्ता	-2860
▁ली	-2861
▁जित	-2862
▁वरिष्ठ	-2863
▁मंदिरा	-2864
ऊल	-2865
ठीक	-2866
▁जाण	-2867
▁शुभे	-2868
स्ट्र	-2869
िकल	-2870
ंटे	-2871
्ये	-2872
▁अर	-2873
▁कने	-2874
▁तीस	-2875
▁ठीक	-2876
▁परमेश्वराच्या	-2877
▁बरो	-2878
▁मेट	-2879
▁स्वातंत्र	-2880
▁धा	-2881
▁असताना	-2882
इड	-2883
ात्मा	-2884
▁उम्मीद	-2885
▁दूंगा	-2886
▁जिन्होंने	-2887
▁वहाँ	-2888
▁मूसा	-2889
30	-2890
▁कंपनी	-2891
र्न	-2892
▁हिमा	-2893
थम	-2894
▁रोक	-2895
▁काल	-2896
▁दौरा	-2897
ित्व	-2898
▁औद्योग	-2899
कां	-2900
▁मंच	-2901
▁लढा	-2902
▁भीतर	-2903
न्व	-2904
▁शुभ	-2905
▁घरे	-2906
▁दिए	-2907
▁कायम	-2908
▁पहली	-2909
▁देतो	-2910
▁महत्त्व	-2911
▁वातावरण	-2912
▁देवाच्या	-2913
▁D	-2914
सायिक	-2915
व्ह	-2916
▁जाएंगे	-2917
▁प्रदर्श	-2918
▁नाय	-2919
▁भाई	-2920
▁लेकर	-2921
▁सुना	-2922
▁उद्यम	-2923
▁प्रस	-2924
तेखाली	-2925
मर	-2926
म्र	-2927
▁जहाँ	-2928
लंब	-2929
▁इज़	-2930
कृष्ट	-2931
▁न्यू	-2932
▁यांची	-2933
तः	-2934
▁आदिवासी	-2935
रल	-2936
ॉक	-2937
रूप	-2938
▁28	-2939
▁डॉल	-2940
▁ऑग	-2941
▁यंत्र	-2942
▁सिद्ध	-2943
▁शुभेच्छा	-2944
अर	-2945
▁भाषण	-2946
▁याची	-2947
▁राही	-2948
▁मामले	-2949
ेला	-2950
▁स्थानी	-2951
काळी	-2952
▁अंध	-2953
▁भूमी	-2954
्राम	-2955
▁अध्यक्षतेखाली	-2956
गो	-2957
▁समुद	-2958
▁थो	-2959
▁दवा	-2960
▁लोकांच्या	-2961
्टी	-2962
▁यहु	-2963
▁औद्योगिक	-2964
▁दर्शन	-2965
▁आपूर्ति	-2966
▁दृष्टिको	-2967
▁पुरवठा	-2968
▁राजस्थान	-2969
ष्ण	-2970
▁हवे	-2971
▁त्यात	-2972
ड्या	-2973
▁असलेले	-2974
▁सामर्थ	-2975
di	-2976
▁शुद्ध	-2977
▁शोक	-2978
▁संसाधन	-2979
▁घेतले	-2980
▁म्हणतो	-2981
त्मक	-2982
राइल	-2983
▁आमचे	-2984
▁प्रभावित	-2985
as	-2986
कात	-2987
▁एकम	-2988
▁तरीके	-2989
▁रोगी	-2990
▁गंभीर	-2991
▁मोबा	-2992
▁तुमचे	-2993
▁युवक	-2994
▁अत्यंत	-2995
र्गिक	-2996
▁परस्पर	-2997
▁संग्रहा	-2998
िक्	-2999
▁बळ	-3000
▁गुणवत्ता	-3001
▁माणस	-3002
▁1,	-3003
▁निकाल	-3004
▁दह	-3005
▁माहीत	-3006
▁संक्रम	-3007
▁नागरिकों	-3008
धारण	-3009
▁वाह	-3010
▁मिसर	-3011
▁करूंगा	-3012
▁विदेशी	-3013
▁स्त्री	-3014
ियर	-3015
▁देना	-3016
▁प्रती	-3017
▁जानकारी	-3018
▁ब्रिक्स	-3019
ढ़ा	-3020
▁अभिया	-3021
▁मुझ	-3022
त्ति	-3023
▁ख्रि	-3024
▁गोष्ट	-3025
ढी	-3026
▁राख	-3027
▁प्रतिनिध	-3028
पत्र	-3029
▁शुरु	-3030
▁वर्षे	-3031
▁बजा	-3032
नान	-3033
चारी	-3034
ल्याने	-3035
▁एमएस	-3036
्यातील	-3037
▁संदे	-3038
▁छात्रों	-3039
त्त	-3040
मति	-3041
▁जाओ	-3042
▁लहान	-3043
▁चाचणी	-3044
कूल	-3045
ढावा	-3046
ैसर्गिक	-3047
▁शिष	-3048
▁उपायय	-3049
▁संबंधों	-3050
er	-3051
बू	-3052
वधान	-3053
▁अर्पण	-3054
▁उपराष्ट्रपती	-3055
▁इसकी	-3056
▁प्रेरणा	-3057
मंड	-3058
▁महात्मा	-3059
ँचा	-3060
▁युवाओं	-3061
▁बल	-3062
मारी	-3063
▁लंब	-3064
▁विशा	-3065
रीय	-3066
▁सभा	-3067
▁26	-3068
▁कॉन्फ	-3069
▁फॉ	-3070
▁परंप	-3071
एमई	-3072
▁व्यावसायिक	-3073
▁बाय	-3074
▁इंटर	-3075
▁इच्छ	-3076
▁गेली	-3077
▁शहरी	-3078
लाच्या	-3079
लित	-3080
▁बरोबर	-3081
▁नैसर्गिक	-3082
▁रणनी	-3083
▁आदर	-3084
▁आपने	-3085
▁आराम	-3086
.20	-3087
▁अभी	-3088
▁जमा	-3089
▁प्रभू	-3090
रुन	-3091
▁ढांचे	-3092
▁प्रमाणात	-3093
दया	-3094
▁ऑगस्ट	-3095
ुण	-3096
▁एक्स	-3097
क्या	-3098
ब्ल	-3099
▁पुल	-3100
▁पांच	-3101
▁यशस्वी	-3102
▁कार्यान्वयन	-3103
▁लौ	-3104
▁आतंक	-3105
▁गाँ	-3106
ोव्ह	-3107
वर्षी	-3108
▁होतात	-3109
विद्यालय	-3110
▁लढ	-3111
ायला	-3112
▁वीं	-3113
▁जबकि	-3114
▁हृदय	-3115
▁जम	-3116
▁2014	-3117
▁पत्थ	-3118
दूत	-3119
मिनी	-3120
समोर	-3121
कालीन	-3122
▁बिजली	-3123
▁प्रत्यक्ष	-3124
▁आढावा	-3125
▁हमारा	-3126
▁द्वार	-3127
▁आभार	-3128
▁शुरुआ	-3129
कान	-3130
▁पशु	-3131
▁दिशेने	-3132
▁महत्त्वा	-3133
50	-3134
▁संभाव	-3135
▁सुलभ	-3136
राच्या	-3137
▁दृष्टीने	-3138
▁सर्वेक्षण	-3139
जरा	-3140
▁विभागा	-3141
मंत्र	-3142
▁शास	-3143
▁लगे	-3144
ार्मिक	-3145
तार	-3146
बह	-3147
▁आकार	-3148
▁होऊन	-3149
▁प्रश्न	-3150
▁निकल	-3151
जात	-3152
▁क्रम	-3153
ांमुळे	-3154
▁इसमें	-3155
▁मोशे	-3156
लम	-3157
त्री	-3158
र्भात	-3159
▁आढ	-3160
▁मुख्यमंत्री	-3161
▁निपट	-3162
▁योजन	-3163
▁साझे	-3164
▁चीजों	-3165
प्प	-3166
▁उचल	-3167
▁मृत्यु	-3168
▁लाने	-3169
▁करेगी	-3170
▁पहचान	-3171
▁जबाब	-3172
▁रस्ते	-3173
▁प्रशासन	-3174
▁सेवाओं	-3175
▁थेट	-3176
▁आव्हान	-3177
पात	-3178
निर्माण	-3179
▁धार्मिक	-3180
▁उड	-3181
▁स्वामी	-3182
ेटा	-3183
▁अंतिम	-3184
▁काळजी	-3185
राध	-3186
ड़ाई	-3187
बिनेट	-3188
▁यांच्यात	-3189
वेल	-3190
ायी	-3191
▁इला	-3192
▁बाजू	-3193
▁दहशत	-3194
क्ष्म	-3195
▁फायदा	-3196
▁मिस्र	-3197
▁सराहना	-3198
▁विशिष्ट	-3199
नाला	-3200
▁चालू	-3201
▁उत्पादक	-3202
दृ	-3203
▁जिससे	-3204
▁स्थिर	-3205
▁समुदाय	-3206
▁ज़	-3207
▁खरेदी	-3208
▁इज़राइल	-3209
प्ता	-3210
▁मंत्रिमंडळा	-3211
्यो	-3212
▁नेट	-3213
▁मुले	-3214
▁तिच्या	-3215
िनियम	-3216
▁राहील	-3217
▁मंत्रालयाने	-3218
वेदन	-3219
▁पात	-3220
▁बँक	-3221
▁भाषा	-3222
▁भारतातील	-3223
▁व्यवस्थापन	-3224
▁लांब	-3225
▁होत्या	-3226
▁म्हणजेच	-3227
नाचे	-3228
▁निहार	-3229
▁गैर	-3230
▁जमिनी	-3231
▁एकत्रित	-3232
▁सहा	-3233
▁प्रोत्साहित	-3234
डर	-3235
यरस	-3236
▁नुकसान	-3237
▁छा	-3238
▁करावा	-3239
ियल	-3240
▁दूध	-3241
▁नको	-3242
▁याच	-3243
▁सन्मान	-3244
▁27	-3245
▁उर्	-3246
सभा	-3247
▁अश	-3248
कल्प	-3249
▁फल	-3250
्यासाठी	-3251
▁अभिनंदन	-3252
▁देखने	-3253
▁मीडिया	-3254
दित	-3255
▁हस्ते	-3256
▁समीक्षा	-3257
▁–	-3258
ट्टी	-3259
वर्क	-3260
▁एकी	-3261
▁देखभाल	-3262
▁प्रस्त	-3263
कृति	-3264
ल्यावर	-3265
▁सर्वश	-3266
▁नेताओं	-3267
▁23	-3268
▁तेज	-3269
▁आवास	-3270
▁सत्र	-3271
▁उद्यान	-3272
▁पसर	-3273
▁आदान	-3274
▁सोने	-3275
ाचे	-3276
कृतिक	-3277
▁कर्ज	-3278
▁बंगा	-3279
▁३	-3280
ॉर्ड	-3281
▁बिल	-3282
▁स्थानीय	-3283
र्घ	-3284
▁गाव	-3285
▁प्रतिबंध	-3286
लग	-3287
▁उभ	-3288
▁हर्ष	-3289
▁संस्थान	-3290
▁पोहच	-3291
▁सर्वोत्	-3292
ंडी	-3293
▁ठेवा	-3294
▁सेवन	-3295
्षिक	-3296
▁ताकत	-3297
▁जानते	-3298
▁जानेवारी	-3299
▁धर	-3300
▁गैस	-3301
▁बोला	-3302
▁चालना	-3303
दरम्यान	-3304
▁स्मार्ट	-3305
वासा	-3306
▁आकाश	-3307
▁ज्यादा	-3308
▁पुरुषों	-3309
▁मीटर	-3310
▁देऊ	-3311
▁जीएसटी	-3312
▁ऐसी	-3313
▁कहता	-3314
▁नवाचार	-3315
▁संस्कृति	-3316
बरोबरच	-3317
▁धु	-3318
▁महस	-3319
▁मण	-3320
▁भवन	-3321
▁निजी	-3322
सेल	-3323
थून	-3324
▁जातील	-3325
▁प्रेरित	-3326
▁B	-3327
▁माता	-3328
▁समित	-3329
▁अना	-3330
▁पीछे	-3331
▁निर्धारित	-3332
▁तों	-3333
▁सेव	-3334
▁विद्य	-3335
▁राष्ट्रा	-3336
ov	-3337
▁वड	-3338
..	-3339
▁वर्षी	-3340
्रोल	-3341
▁करण्यास	-3342
▁आँख	-3343
▁जाऊन	-3344
▁राहत	-3345
▁यहूदी	-3346
▁प्रार	-3347
एंगे	-3348
▁तरुण	-3349
▁कवर	-3350
▁नावा	-3351
▁तेरे	-3352
▁सांगतो	-3353
ुती	-3354
▁ऋण	-3355
▁विषा	-3356
▁विश्	-3357
▁उपराष्ट्रपति	-3358
सोबत	-3359
▁लागले	-3360
▁अधिनियम	-3361
▁प्राकृतिक	-3362
ेने	-3363
▁रिप	-3364
▁सतत	-3365
▁डाला	-3366
हक	-3367
▁आग्रह	-3368
▁उत्सा	-3369
▁स्थापन	-3370
स्व	-3371
▁जीवित	-3372
▁इमार	-3373
▁थांब	-3374
▁स्थिती	-3375
मण	-3376
जारी	-3377
क्षणिक	-3378
पूर्वक	-3379
▁अत्या	-3380
णाचे	-3381
्यु	-3382
▁दृष्टिकोण	-3383
▁संस्थानों	-3384
ैव	-3385
यिक	-3386
▁40	-3387
▁बघ	-3388
▁जागा	-3389
▁समन्व	-3390
▁वेगाने	-3391
लावधी	-3392
▁एकदा	-3393
्टेंबर	-3394
▁मास्क	-3395
▁मुद्दों	-3396
▁मिन	-3397
▁क्री	-3398
▁तलवार	-3399
सन	-3400
हू	-3401
▁विरा	-3402
▁पलि	-3403
▁हस्ताक्षर	-3404
▁संदर्भ	-3405
▁अर्थव्यवस्थ	-3406
माने	-3407
▁सेंटर	-3408
▁G	-3409
सुद्धा	-3410
▁लॉकडाउन	-3411
िओ	-3412
ासून	-3413
▁साइ	-3414
▁श्रम	-3415
▁समिती	-3416
वित	-3417
▁जातात	-3418
▁जिसने	-3419
▁नोव्ह	-3420
▁बिहार	-3421
▁कालावधी	-3422
ॉट	-3423
देन	-3424
ातार	-3425
▁पासून	-3426
▁प्रथम	-3427
▁साझेदारी	-3428
▁प्रकल्पा	-3429
▁एज	-3430
▁माँ	-3431
▁भेजा	-3432
▁रखते	-3433
▁कैबिनेट	-3434
बो	-3435
▁दर्द	-3436
▁सप्टेंबर	-3437
al	-3438
नाचा	-3439
▁देणे	-3440
▁अग्र	-3441
▁असेही	-3442
▁नग	-3443
▁विदेश	-3444
▁शेतकरी	-3445
राई	-3446
▁तपास	-3447
▁परंपरा	-3448
▁बैठकीत	-3449
▁नोव्हेंबर	-3450
र्श	-3451
▁मसी	-3452
▁तिथे	-3453
▁तुमची	-3454
गाव	-3455
ाची	-3456
▁रहता	-3457
▁चरण	-3458
▁शैक्षणिक	-3459
▁पूजा	-3460
क्टोबर	-3461
▁कल्पना	-3462
▁पोर्टल	-3463
▁मिळाली	-3464
ळू	-3465
नासाठी	-3466
स्त्रा	-3467
▁त्रास	-3468
▁सर्वांना	-3469
शू	-3470
वरुन	-3471
▁अगदी	-3472
▁R	-3473
▁मांग	-3474
▁उत्कृष्ट	-3475
ेशी	-3476
ऊंगा	-3477
▁भारताचे	-3478
डु	-3479
▁शत	-3480
▁खरीद	-3481
▁घटना	-3482
ब्ज	-3483
▁जण	-3484
▁वाहन	-3485
▁मानसिक	-3486
▁जवाब	-3487
▁वारा	-3488
▁शुरुआत	-3489
▁दिलेल्या	-3490
▁ठेवले	-3491
माल	-3492
▁विशाल	-3493
वादी	-3494
▁निहारना	-3495
बळ	-3496
सेना	-3497
▁मसीह	-3498
भाष	-3499
दियों	-3500
▁वाज	-3501
▁बंगाल	-3502
▁स्वतंत्रता	-3503
▁घटक	-3504
▁अंदा	-3505
▁संसद	-3506
यचे	-3507
▁दहा	-3508
▁नायडू	-3509
▁आढळ	-3510
▁लेवी	-3511
▁बलि	-3512
▁अर्थात	-3513
▁गट	-3514
ंसाठी	-3515
.4	-3516
राब	-3517
विषयक	-3518
ॅट	-3519
केज	-3520
▁29	-3521
▁जला	-3522
▁कार्	-3523
▁इलेक्ट्र	-3524
▁सै	-3525
▁राब	-3526
▁वेब	-3527
▁जंगल	-3528
▁संभव	-3529
▁स्थानिक	-3530
▁शहा	-3531
मधल्या	-3532
▁देखते	-3533
▁भारती	-3534
तू	-3535
फ्ट	-3536
कट्	-3537
▁इकट्	-3538
▁जागर	-3539
ारण	-3540
▁खत	-3541
▁तुझी	-3542
▁मात्रा	-3543
▁प्रवासी	-3544
इस	-3545
▁चां	-3546
▁टीम	-3547
▁मॉड	-3548
▁गोवा	-3549
▁ग्राम	-3550
ळव	-3551
डियो	-3552
▁स्थानों	-3553
फ्	-3554
शुद्ध	-3555
हीर	-3556
▁अरु	-3557
▁असं	-3558
▁विध	-3559
▁लगातार	-3560
▁वार्षिक	-3561
▁प्रतिबद्धता	-3562
▁बौ	-3563
▁तिला	-3564
▁चाहते	-3565
▁बहनों	-3566
▁विरासत	-3567
▁2022	-3568
▁देशां	-3569
ब्रु	-3570
▁येतील	-3571
गढ़	-3572
▁गौरव	-3573
सों	-3574
▁प्रो	-3575
▁शकेल	-3576
▁यामध्ये	-3577
दायक	-3578
▁डिस	-3579
▁सफलता	-3580
▁विद्यापी	-3581
फार	-3582
विटी	-3583
▁बहा	-3584
▁मांड	-3585
▁उत्स	-3586
ार्ड	-3587
▁शेव	-3588
▁तट	-3589
▁२०	-3590
▁आदेश	-3591
▁पार्क	-3592
ंवर	-3593
▁होम	-3594
▁गतिविधियों	-3595
ेस	-3596
▁बंधू	-3597
▁सुबह	-3598
▁पत्नी	-3599
जि	-3600
क्षक	-3601
▁स्त्र	-3602
ीप	-3603
भूमी	-3604
▁कित	-3605
▁रस्त	-3606
▁एमएसएमई	-3607
▁मधु	-3608
▁करावी	-3609
▁पहुँच	-3610
▁हवामान	-3611
ब्रुवारी	-3612
▁अनि	-3613
▁सही	-3614
▁सल्ला	-3615
▁मनुष	-3616
▁जिन्हें	-3617
वणे	-3618
▁लाया	-3619
▁सलाह	-3620
गल	-3621
▁अली	-3622
▁क्ल	-3623
▁लगता	-3624
▁घेण्यात	-3625
▁गडकरी	-3626
▁फेब्रुवारी	-3627
▁वायु	-3628
▁परमेश्वराला	-3629
▁द्रा	-3630
▁श्रद्ध	-3631
▁डों	-3632
▁प्ले	-3633
▁कामगार	-3634
▁हस्त	-3635
▁कौशल्य	-3636
ृंख	-3637
न्द्र	-3638
▁बंदर	-3639
▁महामार्	-3640
▁उपा	-3641
▁एंड	-3642
▁ऑक्टोबर	-3643
▁रोगियों	-3644
गम	-3645
ेचे	-3646
▁शकता	-3647
ाराच्या	-3648
नेत	-3649
▁डर	-3650
▁येणाऱ्या	-3651
पद	-3652
लीस	-3653
▁दीर्घ	-3654
▁उपयुक्त	-3655
▁क्षेत्रीय	-3656
▁दूरी	-3657
▁निरंतर	-3658
वादा	-3659
प्रदान	-3660
▁रास्ते	-3661
▁पीढ़	-3662
▁पर्वत	-3663
वंत	-3664
र्जी	-3665
निर्भर	-3666
▁कुमार	-3667
रीत	-3668
▁अथवा	-3669
.2	-3670
ंदोल	-3671
▁विधे	-3672
णाचा	-3673
▁आसियान	-3674
▁श्रमिक	-3675
▁फर	-3676
च्चा	-3677
▁तास	-3678
▁क्रोध	-3679
सायन	-3680
▁तकनीकी	-3681
▁म्हणूनच	-3682
▁रोख	-3683
▁परिसर	-3684
▁हल	-3685
स्टर	-3686
▁जाग	-3687
▁घरों	-3688
▁देखो	-3689
ँड	-3690
व्र	-3691
▁त्र	-3692
▁हूँ	-3693
▁भारताने	-3694
घड	-3695
▁75	-3696
▁कुठ	-3697
▁घात	-3698
▁झार	-3699
▁सरकारों	-3700
▁मूर्ख	-3701
▁व्यवसाय	-3702
▁सूक्ष्म	-3703
▁इलेक्ट्रॉन	-3704
▁झु	-3705
▁रस	-3706
नाची	-3707
▁थीं	-3708
▁मेड	-3709
▁रहते	-3710
▁आंध	-3711
▁बने	-3712
कामना	-3713
▁उसी	-3714
▁होणाऱ्या	-3715
▁70	-3716
▁जल्द	-3717
ोजक	-3718
क्सी	-3719
▁नया	-3720
▁शत्रू	-3721
▁जागरूक	-3722
जब	-3723
▁त्वचा	-3724
▁अप्रैल	-3725
▁जगातील	-3726
▁योजनाओं	-3727
णसी	-3728
▁संकेत	-3729
▁माणसे	-3730
वीन	-3731
▁काफी	-3732
▁लॉन्	-3733
▁मिलियन	-3734
▁मूल्या	-3735
लाम	-3736
▁उभे	-3737
▁समाप्त	-3738
संबंध	-3739
▁कर्मचारी	-3740
▁वास्तव	-3741
▁दिल्लीत	-3742
▁नेटवर्क	-3743
▁प्रतिनिधी	-3744
▁डेटा	-3745
ांतर्गत	-3746
▁सिं	-3747
▁देंगे	-3748
▁परमेश्वराचा	-3749
▁नमू	-3750
▁चिंता	-3751
▁दर्जा	-3752
▁भारताला	-3753
▁वर्षा	-3754
▁शिक्षक	-3755
ृती	-3756
▁खोल	-3757
▁तुझा	-3758
▁विश्वविद्यालय	-3759
श्वत	-3760
▁स्रो	-3761
▁अपेक्षा	-3762
दना	-3763
▁सर्वो	-3764
▁दास	-3765
.1	-3766
नाटक	-3767
▁मेट्रो	-3768
▁संचालन	-3769
▁काप	-3770
▁मार्गा	-3771
बु	-3772
▁जलवा	-3773
▁शुल्क	-3774
▁शुभकामना	-3775
याह	-3776
▁रेड	-3777
▁आंदोल	-3778
लात	-3779
▁एशिया	-3780
▁रात्री	-3781
▁संभावना	-3782
▁पाळ	-3783
करणीय	-3784
रेल	-3785
▁री	-3786
▁उंच	-3787
▁युग	-3788
▁तीव्र	-3789
▁अगले	-3790
▁राज्यात	-3791
ांश	-3792
▁पथ	-3793
▁देईल	-3794
▁उनमें	-3795
▁परीक्षा	-3796
ोरी	-3797
▁फु	-3798
विण्यासाठी	-3799
पथ	-3800
▁आमचा	-3801
▁अंतरा	-3802
ndi	-3803
▁इस्राए	-3804
▁मल	-3805
▁उचित	-3806
स्करण	-3807
ृंखला	-3808
▁ऑनलाइन	-3809
▁विमानत	-3810
▁जसे	-3811
▁प्रिय	-3812
▁सोडून	-3813
▁वर्षां	-3814
▁रिपोर्ट	-3815
th	-3816
▁पूछ	-3817
▁ईशान	-3818
▁जाहीर	-3819
▁मूर्ती	-3820
यान	-3821
▁खून	-3822
▁नागरी	-3823
▁बाबेल	-3824
वें	-3825
▁आशिया	-3826
▁विवरण	-3827
▁राजधान	-3828
on	-3829
िर्म	-3830
▁काट	-3831
▁बेटे	-3832
▁हरिया	-3833
▁चुनौतियों	-3834
याला	-3835
▁देशाला	-3836
▁मई	-3837
पुढे	-3838
▁हिर	-3839
▁येऊन	-3840
▁अशुद्ध	-3841
▁तुम्हारा	-3842
पि	-3843
्यूट	-3844
▁मेंढ	-3845
▁प्रकारच्या	-3846
▁चंद्र	-3847
▁विशेषज्ञ	-3848
▁60	-3849
म्मे	-3850
▁गर्भ	-3851
▁भुगत	-3852
▁पर्वता	-3853
▁विरुद्ध	-3854
▁आतापर्यंत	-3855
ंपर	-3856
▁आते	-3857
▁जैव	-3858
▁लड़ाई	-3859
▁हिंद	-3860
नेस	-3861
▁श्रद्धांज	-3862
▁खड़ा	-3863
▁कायदा	-3864
▁बौद्ध	-3865
▁गठ	-3866
▁लक्षण	-3867
▁गरीबों	-3868
जोर	-3869
णावर	-3870
▁ब्ल	-3871
▁व्यक्तियों	-3872
▁किमी	-3873
▁राजमार्ग	-3874
यारी	-3875
▁टक्क	-3876
▁रक्षण	-3877
▁मार्गदर्शक	-3878
▁पैसे	-3879
▁मैदान	-3880
▁कर्नाटक	-3881
▁वाराणसी	-3882
▁साफ	-3883
▁केलेले	-3884
▁घेण्यासाठी	-3885
िटी	-3886
▁बर	-3887
▁रिक	-3888
▁सूर	-3889
ारीरिक	-3890
▁पत्थर	-3891
▁प्रशास	-3892
बन	-3893
णाची	-3894
संख्या	-3895
▁आमंत्र	-3896
▁डिसेंबर	-3897
यात	-3898
▁नै	-3899
▁कोर	-3900
▁वापस	-3901
▁महिमा	-3902
▁समिति	-3903
▁मृत्यू	-3904
▁चले	-3905
▁बनव	-3906
▁अजून	-3907
▁विषाणू	-3908
▁त्यानंतर	-3909
डून	-3910
▁भि	-3911
मर्श	-3912
▁लिम	-3913
▁जैसी	-3914
▁ट्रेन	-3915
▁हिस्से	-3916
▁शारीरिक	-3917
शास	-3918
▁चर	-3919
वेग	-3920
▁बज	-3921
▁घरी	-3922
▁कुशल	-3923
▁सत्य	-3924
▁घोषित	-3925
▁कार्यों	-3926
.3	-3927
▁दृढ	-3928
▁अल्प	-3929
▁आयुष्य	-3930
▁कामगिरी	-3931
तीला	-3932
▁घंटे	-3933
▁अपराध	-3934
▁निर्मा	-3935
▁पेट्रोल	-3936
▁कोल	-3937
▁आपका	-3938
▁तत्व	-3939
ापासून	-3940
▁याच्या	-3941
▁वीडियो	-3942
▁*	-3943
▁दूसरी	-3944
▁सैन्य	-3945
▁शांतता	-3946
▁शाश्वत	-3947
णु	-3948
▁गर्व	-3949
▁जहाज	-3950
ध्यक्ष	-3951
▁लॉन्च	-3952
िब	-3953
▁दोष	-3954
▁कोविद	-3955
संदर्भात	-3956
▁दस	-3957
काला	-3958
▁करणारे	-3959
▁जलवायु	-3960
▁हास	-3961
▁जगभर	-3962
▁बलिदान	-3963
▁सहाय्य	-3964
▁परिवारों	-3965
▁खाज	-3966
काच्या	-3967
▁हाथों	-3968
▁भागीदार	-3969
▁सुरुवात	-3970
▁सामर्थ्य	-3971
▁सहज	-3972
▁2015	-3973
▁यिर्म	-3974
▁सर्वोच्च	-3975
चं	-3976
घे	-3977
▁चीन	-3978
▁बोलत	-3979
▁संचार	-3980
▁सशक्त	-3981
▁आख	-3982
प्रकार	-3983
▁सर्वोत्तम	-3984
▁कर्त	-3985
▁कोणीही	-3986
▁भारताची	-3987
▁उल	-3988
गरानी	-3989
▁पातळी	-3990
▁चांगली	-3991
▁प्रारंभ	-3992
राज्य	-3993
ानंतर	-3994
▁आयात	-3995
▁अच्छे	-3996
▁साह	-3997
▁ग्री	-3998
▁अवस्थ	-3999
▁चाहता	-4000
▁राजधानी	-4001
माग	-4002
▁पक	-4003
▁समझौते	-4004
▁निघ	-4005
▁उत्तरा	-4006
▁अस्पताल	-4007
▁येतात	-4008
▁इकट्ठा	-4009
▁अमेरिका	-4010
▁पर्याप्त	-4011
▁कार्ड	-4012
▁जिम्मे	-4013
▁श्रृंखला	-4014
▁तां	-4015
ेंशन	-4016
▁आकां	-4017
▁वेळे	-4018
▁संग्रहालय	-4019
▁इस्राएलच्या	-4020
.6	-4021
▁एली	-4022
▁छु	-4023
▁खोज	-4024
▁झोप	-4025
▁जगात	-4026
▁मागणी	-4027
्वर	-4028
िटेड	-4029
▁मुख	-4030
▁पुनरु	-4031
▁कर्मचा	-4032
▁भुगतान	-4033
▁निगरानी	-4034
▁संस्कृती	-4035
जण	-4036
▁बोलते	-4037
▁५	-4038
▁महसूस	-4039
मिन	-4040
देशक	-4041
▁किस	-4042
▁येऊ	-4043
▁ऐकले	-4044
▁खाने	-4045
▁दरवा	-4046
▁निष्	-4047
▁झारखंड	-4048
ब्ल्यू	-4049
्डा	-4050
ोट्या	-4051
▁आश्वास	-4052
▁दान	-4053
▁वाग	-4054
▁आतंकवाद	-4055
सीसी	-4056
▁सारी	-4057
ानुसार	-4058
▁बोर्ड	-4059
▁जबाबदारी	-4060
▁देशातल्या	-4061
फत	-4062
▁कैं	-4063
▁आत्मनिर्भर	-4064
डि	-4065
ंकि	-4066
न्या	-4067
ांतर	-4068
तांना	-4069
▁लिमिटेड	-4070
म्प	-4071
▁होणे	-4072
▁लागेल	-4073
▁निरा	-4074
▁पोषण	-4075
▁साथी	-4076
▁समुद्री	-4077
प्न	-4078
▁एच	-4079
▁सित	-4080
▁प्ला	-4081
ंटी	-4082
▁भगिनी	-4083
टकों	-4084
▁आणले	-4085
तेच्या	-4086
▁दिसून	-4087
▁स्तरावर	-4088
निंग	-4089
्रिया	-4090
▁उर्वर	-4091
▁मानले	-4092
व्ही	-4093
▁यून	-4094
▁शौल	-4095
▁सेवे	-4096
▁स्वातंत्र्य	-4097
ंनो	-4098
▁मान्य	-4099
▁शुभार	-4100
▁साध्य	-4101
▁निकट	-4102
▁कॉर्प	-4103
▁दिखाई	-4104
▁कनेक्ट	-4105
▁सुविधाओं	-4106
गीत	-4107
स्टम	-4108
▁बांग	-4109
▁उत्साह	-4110
▁पद्धती	-4111
शीलता	-4112
▁संसाध	-4113
▁विधेयक	-4114
.7	-4115
र्ती	-4116
▁यूर	-4117
▁हाती	-4118
▁चांदी	-4119
शनल	-4120
स्टी	-4121
▁उतर	-4122
▁वजन	-4123
▁देणार	-4124
▁निम्न	-4125
▁बदलाव	-4126
▁संगठन	-4127
▁विकासासाठी	-4128
नाम	-4129
▁यात्र	-4130
ri	-4131
नगर	-4132
पाळ	-4133
▁2019-20	-4134
▁प्राधिक	-4135
▁स्थल	-4136
▁स्मरण	-4137
▁क्रीडा	-4138
▁वास्तविक	-4139
जल	-4140
▁गल	-4141
▁मुली	-4142
▁वेळा	-4143
▁स्वप्न	-4144
▁चम	-4145
▁ताप	-4146
▁देवी	-4147
▁निभा	-4148
▁वृक्ष	-4149
▁सरदार	-4150
▁संदेष्ट	-4151
▁उत्पादों	-4152
ूब	-4153
तरी	-4154
नावर	-4155
▁नेता	-4156
▁एकमेक	-4157
▁विरोध	-4158
▁चांगला	-4159
▁प्रस्तुत	-4160
बंदी	-4161
▁महामार्ग	-4162
वाश	-4163
वाही	-4164
ळ्यात	-4165
▁शहरा	-4166
ोगी	-4167
▁शाह	-4168
▁फैस	-4169
▁मरी	-4170
स्टिक	-4171
▁कृती	-4172
▁येतो	-4173
जु	-4174
वीत	-4175
▁बेथ	-4176
▁देऊन	-4177
▁लिहि	-4178
▁गरजे	-4179
▁सांगा	-4180
▁आकर्षित	-4181
ाचा	-4182
▁गी	-4183
गामी	-4184
▁अटल	-4185
▁वीर	-4186
▁सुख	-4187
प्रिय	-4188
▁आहार	-4189
▁जिलों	-4190
▁हालांकि	-4191
▁कसे	-4192
▁बचत	-4193
▁लोकांचा	-4194
▁सदस्यों	-4195
▁अंतरिक्ष	-4196
यत	-4197
▁आश्च	-4198
▁चुनाव	-4199
▁स्मारक	-4200
▁महत्त्वपूर्ण	-4201
▁हाता	-4202
▁कधीही	-4203
▁म्हणतात	-4204
▁प्रदेशात	-4205
▁नक्	-4206
▁नव्हे	-4207
▁लगाने	-4208
▁पॉ	-4209
▁घरेलू	-4210
▁पात्र	-4211
▁मानवी	-4212
उंड	-4213
दाना	-4214
िस्तान	-4215
▁दल	-4216
ेशनल	-4217
ेन	-4218
टका	-4219
▁उजा	-4220
▁उज	-4221
▁पोल	-4222
en	-4223
▁वस	-4224
▁डाय	-4225
याच्या	-4226
▁सहकारी	-4227
▁2018-19	-4228
▁साप	-4229
▁स्वाक्ष	-4230
▁फुट	-4231
▁तोंड	-4232
▁आसानी	-4233
▁मिळणार	-4234
▁मंत्रिमंडळाने	-4235
▁घेऊ	-4236
स्वर	-4237
▁अबी	-4238
वृत्ती	-4239
▁शुभारंभ	-4240
▁रुग्णालया	-4241
▁स्टेशन	-4242
नर	-4243
▁जाव	-4244
ंपरिक	-4245
▁माना	-4246
▁संदर्भात	-4247
▁अख	-4248
▁तुलनेत	-4249
▁उद्योजक	-4250
र्गा	-4251
▁दुख	-4252
संख्य	-4253
▁जनता	-4254
▁प्यार	-4255
▁संक्रमण	-4256
TI	-4257
▁पुनर्	-4258
▁मधुमे	-4259
▁बीमारी	-4260
▁आश्वासन	-4261
▁शुभकामनाएं	-4262
वरून	-4263
▁उंची	-4264
▁पाहा	-4265
▁अभिमान	-4266
▁प्रतिक्रिया	-4267
es	-4268
▁तरफ	-4269
▁वहां	-4270
ड़ियों	-4271
.8	-4272
कल	-4273
▁कां	-4274
▁कौन	-4275
▁खंड	-4276
▁गाँव	-4277
▁जिसका	-4278
ra	-4279
▁उद	-4280
▁तुर	-4281
▁सादर	-4282
विरुद्ध	-4283
▁बाजारपे	-4284
▁विजय	-4285
▁मंत्रालयाच्या	-4286
▁ग्	-4287
कडील	-4288
▁यही	-4289
▁वीज	-4290
▁मागे	-4291
▁बीमार	-4292
ष्टि	-4293
▁चीजें	-4294
▁ग्राहक	-4295
▁देवाची	-4296
▁भ्रष्टा	-4297
ेत्र	-4298
▁शपथ	-4299
▁सिंग	-4300
▁वितरित	-4301
▁पद्धतीने	-4302
▁प्रयोगशाला	-4303
▁अमित	-4304
▁बनाई	-4305
▁मोबाइल	-4306
▁वेगवेग	-4307
▁मार्गदर्शन	-4308
▁शाऊल	-4309
▁उपायों	-4310
▁नम	-4311
▁तार	-4312
▁अनुमति	-4313
ेवर	-4314
▁पूर्वज	-4315
चारा	-4316
▁खड़े	-4317
▁प्री	-4318
▁प्रसाद	-4319
▁राहिले	-4320
▁मुलांना	-4321
पो	-4322
न्द	-4323
▁लें	-4324
शाला	-4325
▁४	-4326
▁भेज	-4327
स्म	-4328
▁अफ्री	-4329
▁द्वीप	-4330
▁शकणार	-4331
▁अनुमान	-4332
▁राहिला	-4333
तेचा	-4334
▁बुद्धि	-4335
▁पार्श्व	-4336
▁नवीकरणीय	-4337
▁ढा	-4338
▁पाँच	-4339
▁नव्हते	-4340
▁मुद्रा	-4341
▁श्रेणी	-4342
▁प्रतिष्ठ	-4343
▁गॅ	-4344
▁अश्	-4345
▁सोच	-4346
▁याचे	-4347
▁कंपनियों	-4348
▁जेथे	-4349
▁साठी	-4350
▁जरूरत	-4351
ल्यानंतर	-4352
▁तिस	-4353
▁नौकर	-4354
▁आदर्श	-4355
▁समन्वय	-4356
लाईन	-4357
चित्र	-4358
▁आंदोलन	-4359
▁खुश	-4360
▁गोयल	-4361
▁जिले	-4362
▁भागा	-4363
▁विचारों	-4364
चारियों	-4365
▁प्रत्ये	-4366
▁परमेश्वराची	-4367
दिन	-4368
▁हार	-4369
्यायला	-4370
▁सप्ता	-4371
▁अमेरिक	-4372
ेचा	-4373
▁आमची	-4374
रोज	-4375
ॉर्म	-4376
▁खाते	-4377
ळाच्या	-4378
▁समाजा	-4379
▁कोरिया	-4380
▁त्यावेळी	-4381
▁महत्वाचे	-4382
▁रोड	-4383
▁स्वरूप	-4384
▁ज्यामुळे	-4385
▁देशांच्या	-4386
▁फी	-4387
▁उपभ	-4388
▁ठार	-4389
▁कॉले	-4390
▁डॉलर	-4391
▁निवडण	-4392
▁अध्ययन	-4393
▁मंदिरात	-4394
▁नाग	-4395
▁पाड	-4396
▁फॉर	-4397
▁लाइ	-4398
▁भारी	-4399
्यांसाठी	-4400
▁आश्चर्य	-4401
▁लोकांचे	-4402
▁प्राधान्य	-4403
ोरेट	-4404
लेट	-4405
चाल	-4406
▁लागला	-4407
▁शेतकऱ्यांना	-4408
▁जख	-4409
क्कम	-4410
▁बीज	-4411
िविटी	-4412
▁तक्र	-4413
र्मा	-4414
शाही	-4415
▁साधन	-4416
ानिमित्त	-4417
▁सकें	-4418
▁एयर	-4419
▁बाळ	-4420
▁मेहन	-4421
▁आसपास	-4422
भारत	-4423
▁खरो	-4424
▁शौचा	-4425
▁वेत	-4426
▁हल्	-4427
▁देखरे	-4428
▁पेट्रोलियम	-4429
,5	-4430
ंकर	-4431
विन	-4432
▁भय	-4433
ऱ्यांनी	-4434
-18	-4435
▁आरा	-4436
▁संध्या	-4437
▁प्राथमिकता	-4438
लेस	-4439
िसू	-4440
▁(1	-4441
स्तर	-4442
▁आसा	-4443
▁शिम	-4444
▁सर्वा	-4445
▁पहला	-4446
▁संख्य	-4447
▁शक्यता	-4448
▁हस्तांतर	-4449
▁योजनेअंतर्गत	-4450
पटा	-4451
त्रिक	-4452
▁गर्म	-4453
▁निघा	-4454
▁पुलिस	-4455
▁त्यावर	-4456
▁बेटी	-4457
ंजी	-4458
▁पित	-4459
▁पेर	-4460
▁अवलंब	-4461
▁पारंपरिक	-4462
▁हर्षवर्धन	-4463
ंडा	-4464
▁कोशि	-4465
▁स्वस्थ	-4466
▁महिन्यात	-4467
द्द	-4468
▁तला	-4469
▁सिंगा	-4470
▁हासिल	-4471
▁निपटने	-4472
बला	-4473
मोर	-4474
▁कार्यरत	-4475
▁देशभरात	-4476
▁पोट	-4477
▁लॉकडाऊन	-4478
▁जागरूकता	-4479
▁कार्यक्रमात	-4480
▁राज्यमंत्री	-4481
जित	-4482
हीम	-4483
▁वज	-4484
▁मौसम	-4485
▁याको	-4486
▁उघड	-4487
▁घाटी	-4488
▁वाटत	-4489
▁अधिसू	-4490
▁आयुर्व	-4491
▁35	-4492
▁पाय	-4493
▁Indi	-4494
▁चढ़ा	-4495
▁सकाळी	-4496
भि	-4497
ल्ल	-4498
▁लाव	-4499
▁याला	-4500
▁जुलाई	-4501
प्रकारे	-4502
ौन	-4503
▁बाग	-4504
▁बुला	-4505
▁दिवसा	-4506
▁मौजूदा	-4507
▁लोकप्रिय	-4508
▁राष्ट्रों	-4509
ंधन	-4510
ुति	-4511
▁उत	-4512
▁बजट	-4513
▁संय	-4514
▁मौजूद	-4515
▁असलेली	-4516
▁नागरिकांना	-4517
्राइ	-4518
▁पेक्षा	-4519
ण्ड	-4520
▁विप	-4521
▁विवे	-4522
▁राजनी	-4523
▁देवाला	-4524
ay	-4525
न्ना	-4526
्वान	-4527
▁बर्	-4528
करिता	-4529
▁जवान	-4530
▁आंध्र	-4531
▁बुराई	-4532
▁संबंधी	-4533
▁प्रावधान	-4534
▁राहू	-4535
▁केंद्रा	-4536
▁कठोर	-4537
▁चक्र	-4538
▁कोशिश	-4539
▁शीर्ष	-4540
वाणी	-4541
▁उठाए	-4542
▁टप्प	-4543
▁कर्मचारियों	-4544
देव	-4545
▁एड	-4546
▁बरा	-4547
▁आभ	-4548
▁भांड	-4549
▁वायरस	-4550
▁कश्मीर	-4551
▁सामग्री	-4552
ोबत	-4553
▁छह	-4554
सारखा	-4555
▁रचना	-4556
▁वाढव	-4557
▁शिकाय	-4558
▁संघर्ष	-4559
ॉप	-4560
▁रथ	-4561
▁कायद्या	-4562
खन	-4563
ंकन	-4564
▁खाजगी	-4565
▁लु	-4566
▁दार	-4567
कर्ता	-4568
▁मुंह	-4569
▁दीवार	-4570
▁मिळते	-4571
▁U	-4572
रोप	-4573
▁असू	-4574
▁कौत	-4575
▁जावे	-4576
▁कनेक्टिविटी	-4577
वट	-4578
▁सामु	-4579
▁विस्तृत	-4580
▁रखी	-4581
▁पंजा	-4582
▁भव्य	-4583
ीय	-4584
▁इका	-4585
▁समोर	-4586
▁नेत्यांनी	-4587
राला	-4588
व्यात	-4589
▁बनने	-4590
▁अगस्त	-4591
▁आगामी	-4592
▁आह्वान	-4593
▁तपासणी	-4594
▁महोत्स	-4595
▁लढाई	-4596
▁जिल्हा	-4597
▁पंचा	-4598
▁जनतेला	-4599
▁मत्	-4600
▁इलाज	-4601
▁खुले	-4602
▁कौतुक	-4603
▁सहभाग	-4604
▁आपत्ती	-4605
▁पुस्तक	-4606
▁त्यासाठी	-4607
▁देण्याची	-4608
▁धोका	-4609
▁जिनके	-4610
▁परिषदेत	-4611
▁टो	-4612
तेने	-4613
▁स्क	-4614
▁लवकरच	-4615
▁श्रीलं	-4616
▁जानता	-4617
▁पोस्ट	-4618
▁उपाययोजना	-4619
▁पंतप्रधानांच्या	-4620
▁दैन	-4621
▁मोड	-4622
▁काढून	-4623
▁सप्ताह	-4624
ूबर	-4625
सागर	-4626
▁अहम	-4627
▁शान	-4628
▁मदती	-4629
▁मारा	-4630
िर्	-4631
▁मेक	-4632
▁पार्श्वभूमी	-4633
याम	-4634
▁घट	-4635
▁घृ	-4636
▁अद्	-4637
▁आजारा	-4638
▁सामान	-4639
▁बैल	-4640
▁सुव	-4641
▁पटेल	-4642
▁बचाव	-4643
▁सुझा	-4644
िवा	-4645
▁500	-4646
▁रोटी	-4647
▁रहेगा	-4648
▁हरियाणा	-4649
ऱ्यांच्या	-4650
थि	-4651
बार	-4652
▁रखना	-4653
▁तीर्थ	-4654
▁परवान	-4655
▁लागते	-4656
▁हिमाचल	-4657
▁उपलब्धता	-4658
▁पूर	-4659
▁जिथे	-4660
▁दुष्	-4661
▁जुड़े	-4662
शास्त्र	-4663
▁पाण्या	-4664
▁आमंत्रित	-4665
याने	-4666
▁अग्	-4667
▁मुका	-4668
▁जिवंत	-4669
▁नौसेना	-4670
▁स्थायी	-4671
▁लोकांची	-4672
▁उज्ज	-4673
▁सभ	-4674
▁शास्त्र	-4675
ांती	-4676
or	-4677
्रेड	-4678
▁नमूद	-4679
▁अध्या	-4680
▁बदला	-4681
▁कोविंद	-4682
नाश	-4683
िये	-4684
ष्मान	-4685
संबंधी	-4686
▁मर्या	-4687
▁सांगत	-4688
त्तीस	-4689
▁अंदर	-4690
▁अनुकूल	-4691
त्रा	-4692
▁उभय	-4693
गाह	-4694
्हे	-4695
▁केस	-4696
▁निस	-4697
▁मालदी	-4698
▁व्हावे	-4699
▁प्रकृति	-4700
▁गुंतवणुकी	-4701
ंगिक	-4702
▁मित्रों	-4703
▁वंशज	-4704
ासी	-4705
▁धी	-4706
करून	-4707
▁विनंती	-4708
▁शो	-4709
▁घरात	-4710
▁भीड़	-4711
▁लंबे	-4712
क्टूबर	-4713
▁एकीकृत	-4714
▁शब्दों	-4715
▁टिक	-4716
▁पंजाब	-4717
▁पराभव	-4718
▁पुष्क	-4719
▁चुनौती	-4720
▁प्रतीक	-4721
▁बाजूला	-4722
▁मिळाले	-4723
▁झाल्यावर	-4724
▁मनुष्यबळ	-4725
फे	-4726
तेचे	-4727
▁उपास	-4728
▁देशवास	-4729
▁ठिकाण	-4730
▁आँखों	-4731
▁विषयक	-4732
▁श्रीमती	-4733
▁तुम्हारी	-4734
▁विद्यार्थी	-4735
डक	-4736
केट	-4737
क्षेप	-4738
,4	-4739
ंश	-4740
तान	-4741
षित	-4742
▁भूत	-4743
▁आराख	-4744
▁वालों	-4745
▁नोंदणी	-4746
फ़	-4747
भुत	-4748
▁इतके	-4749
▁भेटी	-4750
▁T	-4751
▁सीम	-4752
▁होकर	-4753
▁खरोखर	-4754
▁मुद्दे	-4755
घर	-4756
तल	-4757
?";	-4758
दरा	-4759
▁महासं	-4760
▁पुष्कळ	-4761
▁अंतरावर	-4762
▁सशस्त्र	-4763
▁उत्तराखंड	-4764
एक	-4765
▁झू	-4766
बादी	-4767
▁बाज	-4768
▁तिने	-4769
▁जनवरी	-4770
किस्तान	-4771
▁नेहमीच	-4772
त्म	-4773
▁80	-4774
▁नाथ	-4775
▁देवाचे	-4776
▁ख्रिस्ता	-4777
▁बॉ	-4778
शलक्ष	-4779
▁आसान	-4780
▁कृपा	-4781
▁श्रद्धांजलि	-4782
ीव	-4783
▁अहर	-4784
▁आलो	-4785
▁वन्य	-4786
त्याने	-4787
▁स्रोत	-4788
▁पुणे	-4789
▁पैमाने	-4790
▁2017-18	-4791
ेलो	-4792
्यून	-4793
▁बर्फ	-4794
▁महोत्सव	-4795
▁पर्यटकों	-4796
▁मंत्रिमंडळाची	-4797
आधी	-4798
▁कब	-4799
िय्याह	-4800
पीई	-4801
ड़ित	-4802
▁सिटी	-4803
▁कमजोर	-4804
▁H	-4805
दूर	-4806
विड	-4807
स्वरूप	-4808
▁कॉन्फर	-4809
ाला	-4810
.2020	-4811
दात	-4812
▁आवड	-4813
▁चेहरे	-4814
▁जानवर	-4815
▁जिनमें	-4816
▁अक्टूबर	-4817
▁लै	-4818
कारक	-4819
▁आपाप	-4820
▁तेरी	-4821
▁रखें	-4822
▁करायचे	-4823
▁ठा	-4824
▁पदक	-4825
▁फूट	-4826
▁मिळत	-4827
▁दावीदा	-4828
आप	-4829
▁छि	-4830
▁छोटी	-4831
▁तमिल	-4832
▁बाकी	-4833
ांकडून	-4834
▁तकनीक	-4835
▁अवसरों	-4836
▁राहणार	-4837
▁भारताचा	-4838
गृह	-4839
बाम	-4840
▁तप	-4841
ार्ज	-4842
▁झील	-4843
▁सहन	-4844
▁बाबी	-4845
▁वाळव	-4846
▁अधर्म	-4847
▁पारदर्	-4848
▁सितंबर	-4849
जो	-4850
▁आफ	-4851
दायी	-4852
▁शेती	-4853
▁दशलक्ष	-4854
▁तिर	-4855
▁उन्न	-4856
▁गहरा	-4857
▁जिला	-4858
▁वायू	-4859
▁स्पर्ध	-4860
▁अधि	-4861
▁कारख	-4862
स्तरीय	-4863
▁कार्यालया	-4864
.9	-4865
▁चाहे	-4866
▁कैंसर	-4867
▁निवार	-4868
▁मालदीव	-4869
▁यासारख्या	-4870
आब	-4871
▁दूत	-4872
▁प्रमा	-4873
▁संगीत	-4874
तिरिक्त	-4875
▁जवळपास	-4876
▁लोकशाही	-4877
▁व्यवस्थाप	-4878
सेस	-4879
▁भौ	-4880
आईडी	-4881
▁साधला	-4882
ँकि	-4883
▁जपान	-4884
▁पेड़	-4885
▁प्रसन्न	-4886
ध्दा	-4887
ितीय	-4888
▁उड़	-4889
करोग	-4890
▁फोन	-4891
▁मोज	-4892
▁सोन	-4893
▁अनुदान	-4894
▁वस्तूं	-4895
▁परिवर्त	-4896
▁आकांक्षा	-4897
▁आयुर्वेद	-4898
▁राज्यपाल	-4899
▁विद्यापीठ	-4900
▁सध्याच्या	-4901
चक	-4902
▁150	-4903
▁लौट	-4904
▁उद्ध	-4905
▁ऊँचा	-4906
▁संग्रह	-4907
▁मेडिकल	-4908
चने	-4909
▁गती	-4910
▁पिक	-4911
प्रती	-4912
▁घाबर	-4913
▁डोंग	-4914
▁बांधकाम	-4915
्वा	-4916
▁पाव	-4917
कुमार	-4918
्रेंस	-4919
▁वेतन	-4920
▁समग्र	-4921
▁निर्मित	-4922
▁हालाँकि	-4923
▁/	-4924
पीय	-4925
माला	-4926
▁नित	-4927
▁रोम	-4928
▁साब	-4929
▁नसेल	-4930
▁त्याग	-4931
▁संतुल	-4932
▁बिलियन	-4933
▁मित्रहो	-4934
शासित	-4935
▁आपदा	-4936
ांपासून	-4937
▁मिळाला	-4938
याँ	-4939
रुप	-4940
फ्त	-4941
पादन	-4942
▁आम्ह	-4943
ोत्तर	-4944
▁कामका	-4945
▁रसायन	-4946
▁साकार	-4947
ME	-4948
▁अडच	-4949
▁ट्रै	-4950
▁वेदना	-4951
▁पुजारी	-4952
▁प्राणी	-4953
िप्	-4954
▁कच	-4955
▁कदा	-4956
▁पाहून	-4957
▁येशूने	-4958
र्ज	-4959
▁मिलकर	-4960
▁जवळजवळ	-4961
शूर	-4962
▁गॅस	-4963
▁तरतू	-4964
▁पहिला	-4965
विण्यात	-4966
▁इथल्या	-4967
▁ओडि	-4968
▁चुकी	-4969
▁बारा	-4970
▁सहमत	-4971
▁नेशनल	-4972
▁मोहिम	-4973
▁विचारले	-4974
▁प्राधिकरण	-4975
डेट	-4976
धित	-4977
▁श्	-4978
▁सीओ	-4979
▁दिग्	-4980
▁सज्ज	-4981
▁दूसरा	-4982
▁विनिर्माण	-4983
,6	-4984
▁घु	-4985
▁टै	-4986
नेस्	-4987
▁पैर	-4988
▁सिने	-4989
▁प्रदू	-4990
▁बढ़ाया	-4991
▁राजनाथ	-4992
▁महामहिम	-4993
▁पूर्णपणे	-4994
रील	-4995
▁90	-4996
▁भंड	-4997
▁लिखा	-4998
▁सागरी	-4999
,7	-5000
उस	-5001
ंशी	-5002
▁ऐप	-5003
▁ड्र	-5004
▁आठवण	-5005
▁कॉन्फरन्स	-5006
II	-5007
कोप	-5008
डीओ	-5009
▁इनमें	-5010
▁पेंशन	-5011
कर्ताओं	-5012
▁कोणाला	-5013
▁धार	-5014
▁नोक	-5015
▁आयुष्मान	-5016
▁अका	-5017
▁चुके	-5018
▁गांवों	-5019
,1	-5020
डो	-5021
ोरम	-5022
▁तुमसे	-5023
▁भ्रष्टाचार	-5024
▁उभा	-5025
▁सत्	-5026
चारिक	-5027
त्मिक	-5028
▁नकोस	-5029
▁विजे	-5030
▁साजरा	-5031
ॉजी	-5032
▁इरा	-5033
▁बँके	-5034
▁सचिवा	-5035
▁रास्ता	-5036
▁सातत्याने	-5037
▁37	-5038
ूहिक	-5039
▁मृत	-5040
▁यंत्रणा	-5041
▁दृष्टीको	-5042
▁अरब	-5043
▁अवि	-5044
▁दला	-5045
▁हिज	-5046
णार्या	-5047
▁काहीही	-5048
दो	-5049
▁जलद	-5050
▁मनात	-5051
वाच्या	-5052
▁राजकीय	-5053
▁सिंहास	-5054
▁चाचण्या	-5055
▁मरण	-5056
▁क्षमा	-5057
25	-5058
▁उपग्रह	-5059
▁देखरेख	-5060
▁परदेशी	-5061
▁सामूहिक	-5062
णाचल	-5063
▁पेय	-5064
▁फैल	-5065
दाबाद	-5066
▁सारे	-5067
प्रदेश	-5068
ांपैकी	-5069
▁पक्षी	-5070
▁हिस्सों	-5071
▁प्रकारचे	-5072
फॉर्म	-5073
▁उम्र	-5074
▁परेश	-5075
▁शेवट	-5076
▁शिकार	-5077
▁सिर्फ	-5078
▁पीड़ित	-5079
▁उपस्थिति	-5080
▁लाभार्थियों	-5081
ओयू	-5082
▁जोख	-5083
▁भाऊ	-5084
▁सुश	-5085
▁अद्भुत	-5086
▁मधुमेह	-5087
▁माननीय	-5088
ww	-5089
थ्य	-5090
दोन	-5091
विधान	-5092
ल्याचे	-5093
▁अंतराळ	-5094
▁छत्तीस	-5095
▁संरचना	-5096
▁प्रतिभा	-5097
▁कार्यकारी	-5098
▁J	-5099
जीव	-5100
टली	-5101
ेगा	-5102
▁फू	-5103
श्रम	-5104
▁बजे	-5105
▁परवानगी	-5106
▁विमानतळ	-5107
▁आबादी	-5108
▁भरपूर	-5109
▁परामर्श	-5110
▁६	-5111
र्मी	-5112
शिला	-5113
ंदर्य	-5114
▁देती	-5115
▁नवंबर	-5116
▁संसाधनों	-5117
▁धोरणात्मक	-5118
▁कठी	-5119
▁साठ	-5120
▁साय	-5121
▁हाँ	-5122
▁बाबा	-5123
▁वडील	-5124
▁जाणून	-5125
क्तिमान	-5126
▁कर्करोग	-5127
समा	-5128
▁फंड	-5129
▁हेच	-5130
▁सगळे	-5131
▁ओडिशा	-5132
▁मुलगे	-5133
▁K	-5134
▁खी	-5135
ित्स	-5136
▁कठीण	-5137
▁देईन	-5138
▁मधील	-5139
▁मुझसे	-5140
▁सौंदर्य	-5141
ंचाई	-5142
▁चीज	-5143
▁बळकट	-5144
▁बढ़ती	-5145
▁व्हिड	-5146
ल्यामुळे	-5147
ोवर	-5148
▁आघा	-5149
▁कशा	-5150
▁आठवड	-5151
▁सीएस	-5152
▁पावले	-5153
▁दिख	-5154
▁पां	-5155
▁लंबा	-5156
▁ब्रिट	-5157
is	-5158
ूम	-5159
▁चमक	-5160
▁वाचा	-5161
▁तरतूद	-5162
▁लाभार्थी	-5163
▁सम्मानित	-5164
स्पर्	-5165
▁लेते	-5166
▁अब्रा	-5167
▁सिस्टम	-5168
ंगत	-5169
सीय	-5170
▁असम	-5171
▁नजर	-5172
▁वाढत	-5173
▁दृश्य	-5174
▁होण्याची	-5175
ेज	-5176
▁नक	-5177
▁प्ल	-5178
▁घडवून	-5179
▁अश्शूर	-5180
▁दिव्या	-5181
▁पुराने	-5182
▁काश्मीर	-5183
▁समृद्धि	-5184
▁सृ	-5185
ोवती	-5186
लिखित	-5187
▁मेहनत	-5188
▁होण्यासाठी	-5189
ंथ	-5190
▁अहा	-5191
▁राय	-5192
▁प्लेट	-5193
▁भारतीया	-5194
घात	-5195
▁एकता	-5196
▁कपडे	-5197
▁काळा	-5198
▁दौऱ्या	-5199
▁व्हिडिओ	-5200
▁वेगवेगळ्या	-5201
हम	-5202
▁गुन	-5203
▁शाम	-5204
▁प्राय	-5205
▁तुम्हा	-5206
▁बाबतीत	-5207
▁संवेदन	-5208
▁विविधता	-5209
▁केंद्रशासित	-5210
▁सर्वशक्तिमान	-5211
मिळ	-5212
▁मस्	-5213
▁प्रच	-5214
▁किनार	-5215
▁जापान	-5216
▁तुमने	-5217
▁त्याचबरोबर	-5218
ST	-5219
ii	-5220
ताप	-5221
▁नवे	-5222
देशिक	-5223
वियों	-5224
किल	-5225
लास	-5226
▁लप	-5227
▁सीख	-5228
▁सिक्	-5229
▁सीधे	-5230
▁हितधार	-5231
▁शेतकऱ्यां	-5232
ब्दी	-5233
▁गाय	-5234
▁रखता	-5235
▁कपड़े	-5236
▁चो	-5237
▁दगड	-5238
▁युर	-5239
▁सिल	-5240
▁मनश्	-5241
▁प्राण	-5242
▁विक्र	-5243
▁व्यापारी	-5244
ोषण	-5245
लिक	-5246
्‍या	-5247
▁कमांड	-5248
▁गर्भा	-5249
▁पुत्रों	-5250
▁मूल्यांकन	-5251
▁विल	-5252
▁घृणा	-5253
▁ईशान्य	-5254
▁कदाचित	-5255
▁संघटने	-5256
▁देशांमध्ये	-5257
▁अपे	-5258
▁सूची	-5259
▁उत्सव	-5260
▁यहुवे	-5261
▁अर्थसं	-5262
▁इच्छित	-5263
जनक	-5264
लाही	-5265
धिकार	-5266
सारखी	-5267
▁पंजी	-5268
फर	-5269
▁कोट	-5270
▁कुंभ	-5271
▁राशि	-5272
▁शकतील	-5273
▁Indias	-5274
▁असलेला	-5275
ंभा	-5276
▁अल्	-5277
▁जीत	-5278
▁साख	-5279
रुध्द	-5280
▁दृढ़	-5281
▁आकर्षण	-5282
▁मिलेगी	-5283
▁संसर्ग	-5284
▁प्रादेशिक	-5285
म्ब	-5286
▁मछ	-5287
▁कक्ष	-5288
▁कुठे	-5289
▁जेणे	-5290
▁टेली	-5291
▁लाइन	-5292
▁प्रका	-5293
▁वस्तुओं	-5294
मेर	-5295
▁आओ	-5296
िनार	-5297
▁धूप	-5298
▁शिष्य	-5299
▁मिलेगा	-5300
ज़र	-5301
ान्स	-5302
नाडु	-5303
▁किमान	-5304
▁जुड़ा	-5305
▁अनुरोध	-5306
▁प्रवाह	-5307
▁याबाबत	-5308
▁असणाऱ्या	-5309
▁महत्वाची	-5310
,8	-5311
कार्	-5312
यंकर	-5313
याचे	-5314
▁गोल	-5315
▁डोक	-5316
▁चिकित्स	-5317
▁केंद्रों	-5318
▁खि	-5319
▁सुद्धा	-5320
▁सचिवालय	-5321
▁आघाडी	-5322
▁राजाओं	-5323
हायला	-5324
▁दिव्यांग	-5325
▁सर्वाधिक	-5326
कीम	-5327
▁घाट	-5328
▁घेता	-5329
▁दिवसात	-5330
▁तांत्रिक	-5331
भाग्य	-5332
लियों	-5333
▁पाठि	-5334
▁संपत्ती	-5335
▁भारतीयों	-5336
▁समस्याओं	-5337
▁चक	-5338
▁फळ	-5339
▁रिस	-5340
▁लेख	-5341
▁कामे	-5342
टाच्या	-5343
ांमधील	-5344
▁सहायक	-5345
▁संविधान	-5346
▁सिय	-5347
▁ठरेल	-5348
▁कार्र	-5349
▁वस्त्र	-5350
▁प्रतिमा	-5351
▁प्रदर्शित	-5352
▁कटि	-5353
▁कोळ	-5354
▁शेर	-5355
प्रेस	-5356
ताच्या	-5357
▁उर्जा	-5358
▁बनाना	-5359
▁स्तंभ	-5360
▁कार्यक्रमों	-5361
▁सव	-5362
▁१९	-5363
▁शिव	-5364
▁मत्स्य	-5365
▁माणसाला	-5366
▁प्रयोगशाळा	-5367
पालन	-5368
राचे	-5369
▁दुसरा	-5370
▁लड़ने	-5371
▁अमेरिकी	-5372
▁व्यक्तिगत	-5373
▁मौत	-5374
विष्ट	-5375
▁सोशल	-5376
▁भयंकर	-5377
▁मैत्री	-5378
वतो	-5379
▁होय	-5380
▁अधोरे	-5381
▁श्वास	-5382
▁खात्री	-5383
▁व्यवसा	-5384
▁नियुक्त	-5385
▁रणनीतिक	-5386
▁जाणाऱ्या	-5387
▁भगिनींनो	-5388
it	-5389
▁अस्त	-5390
▁ठेवून	-5391
गान	-5392
▁अर्ज	-5393
▁शौचालय	-5394
▁बाजारपेठ	-5395
,3	-5396
दंड	-5397
▁वाद	-5398
▁नामक	-5399
▁उत्तरे	-5400
▁पहाड़ी	-5401
▁करोगे	-5402
▁कोणते	-5403
▁हल्ला	-5404
▁खूब	-5405
▁स्थळ	-5406
▁लगाया	-5407
▁हजारों	-5408
▁परमेश्वराचे	-5409
ताच	-5410
▁तय	-5411
▁बें	-5412
▁मिली	-5413
▁अफ्रीका	-5414
▁करारावर	-5415
▁कॉन्फ्रेंस	-5416
▁तंत्रज्ञानाचा	-5417
▁बाव	-5418
▁व्हि	-5419
▁कोणती	-5420
▁वस्तु	-5421
▁मूर्ति	-5422
▁राजाला	-5423
▁अरुणाचल	-5424
▁बोलताना	-5425
हेब	-5426
▁इतकी	-5427
▁अनावरण	-5428
अल	-5429
काता	-5430
▁खेळ	-5431
▁नेले	-5432
्लादेश	-5433
▁कार्रवाई	-5434
गाल	-5435
वाण	-5436
ेडकर	-5437
▁द्र	-5438
▁मशी	-5439
▁मां	-5440
▁चारों	-5441
निमित्त	-5442
▁सरकारचे	-5443
and	-5444
पचारिक	-5445
्रेष्ठ	-5446
▁संबोधन	-5447
▁कॉर्पोरेट	-5448
पती	-5449
तेची	-5450
विली	-5451
पोर्ट	-5452
▁अब्ज	-5453
▁असता	-5454
▁करणारा	-5455
▁देवाचा	-5456
▁उल्लेखनीय	-5457
▁प्रस्तावित	-5458
▁सन	-5459
▁पीढ़ी	-5460
खल	-5461
▁चढ	-5462
वावे	-5463
▁गाठ	-5464
ांकित	-5465
▁निरोगी	-5466
ैली	-5467
▁नार	-5468
शक्ती	-5469
▁शराब	-5470
▁सरोवर	-5471
▁डॉलर्स	-5472
▁राज्ये	-5473
▁पार्श्वभूमीवर	-5474
,9	-5475
▁बिन	-5476
प्रति	-5477
▁घेणे	-5478
▁वाणी	-5479
▁पड़ता	-5480
▁किनारे	-5481
▁प्रतिस्पर्	-5482
्‍	-5483
्ती	-5484
क्चर	-5485
न्नई	-5486
पीजी	-5487
र्जे	-5488
ापित	-5489
▁अम्म	-5490
▁उपकर	-5491
▁मॉडल	-5492
▁यहूद	-5493
▁राहतील	-5494
▁संचालक	-5495
▁संवर्धन	-5496
▁अधोरेखित	-5497
▁उपाययोजन	-5498
फाई	-5499
▁PM	-5500
िव्ह	-5501
▁डाक	-5502
▁जांच	-5503
▁बीमा	-5504
▁शक्तिशाली	-5505
लु	-5506
▁एवढे	-5507
▁रहती	-5508
▁फिल्मों	-5509
▁वैशिष्ट	-5510
▁तमिलनाडु	-5511
▁भविष्यात	-5512
्वित	-5513
▁त्वरित	-5514
▁मंदिराच्या	-5515
इम	-5516
ंका	-5517
मैं	-5518
सूर	-5519
▁पुढा	-5520
▁साधारण	-5521
▁राजनीतिक	-5522
,2	-5523
प्रा	-5524
▁ऐका	-5525
▁सदी	-5526
▁अभूत	-5527
▁मानक	-5528
▁अंदाज	-5529
▁पैकेज	-5530
▁प्रचार	-5531
▁ज्यांना	-5532
▁महत्वाच्या	-5533
ट्स	-5534
▁घो	-5535
▁इंडो	-5536
▁औषधे	-5537
▁जोड़	-5538
▁एखादा	-5539
▁अभूतपूर्व	-5540
▁असल्यामुळे	-5541
दायिक	-5542
तेसाठी	-5543
वीआईडी	-5544
▁दुर्ग	-5545
▁बाबुल	-5546
▁स्कूल	-5547
▁अनिवार	-5548
▁कराराला	-5549
▁कर्तव्य	-5550
▁आणण्यासाठी	-5551
वै	-5552
कूब	-5553
वजी	-5554
पीएफ	-5555
▁अभिष	-5556
▁रहें	-5557
▁अडचणी	-5558
▁वेबिनार	-5559
▁स्वदेशी	-5560
IC	-5561
फल	-5562
जेत	-5563
▁गरम	-5564
▁दिशान	-5565
▁संगठनों	-5566
▁निम्नलिखित	-5567
▁त्यांच्यावर	-5568
काचे	-5569
▁हारून	-5570
सब	-5571
ग्ध	-5572
▁नो	-5573
▁हॉ	-5574
▁दाय	-5575
▁ग्रह	-5576
▁सलाम	-5577
▁इस्ते	-5578
▁रोकने	-5579
▁इस्तेमाल	-5580
▁रुपयांची	-5581
)।	-5582
चालन	-5583
रोधी	-5584
▁चुका	-5585
▁जागी	-5586
▁चेहरा	-5587
▁दररोज	-5588
सात	-5589
▁फस	-5590
ांसह	-5591
ैर्य	-5592
▁काशी	-5593
▁इंडियन	-5594
▁वध	-5595
गीकरण	-5596
त्कार	-5597
▁एजें	-5598
▁ब्रा	-5599
▁विमा	-5600
▁आध्या	-5601
▁राजाने	-5602
पति	-5603
▁एक्	-5604
च्चार	-5605
▁बाधा	-5606
▁पहुँचा	-5607
▁मनश्शे	-5608
ंव	-5609
ेची	-5610
पीसी	-5611
▁२०१	-5612
▁उपभो	-5613
▁पाऊल	-5614
▁कराया	-5615
▁लाखों	-5616
▁ऑनलाईन	-5617
▁व्यायाम	-5618
षा	-5619
क्न	-5620
परी	-5621
ल्‍	-5622
▁बढ़ने	-5623
▁चेन्नई	-5624
▁छोट्या	-5625
og	-5626
ळीत	-5627
लांग	-5628
वाना	-5629
वायला	-5630
▁तारी	-5631
▁भेंट	-5632
इंग	-5633
▁केरल	-5634
िर्देश	-5635
▁तेथील	-5636
▁दवाओं	-5637
▁दिशानिर्देश	-5638
AR	-5639
गण	-5640
▁तलाश	-5641
▁मेजब	-5642
▁तेलंग	-5643
▁पैरों	-5644
▁उत्सुक	-5645
▁कोलकाता	-5646
ch	-5647
▁स्पर्धा	-5648
▁आध्यात्मिक	-5649
▁भूक	-5650
ड़कों	-5651
ण्यावर	-5652
▁तरीही	-5653
▁शिकवण	-5654
▁कटिबद्ध	-5655
रळ	-5656
सेफ	-5657
वाहा	-5658
▁माइ	-5659
▁एकाच	-5660
▁वाटा	-5661
▁वंचित	-5662
▁विशेषतः	-5663
ज्ञा	-5664
▁जुन	-5665
▁सोल	-5666
▁कड़ी	-5667
▁मंडळ	-5668
ख्यिकी	-5669
▁जोखिम	-5670
▁तयारी	-5671
▁प्रथा	-5672
▁मुकाबला	-5673
ढ़े	-5674
थान	-5675
ळावर	-5676
▁आंख	-5677
▁छोटा	-5678
ताब्दी	-5679
▁सहकार्या	-5680
▁राष्ट्राध्यक्ष	-5681
,0	-5682
▁बेल	-5683
▁सुनी	-5684
▁द्वारे	-5685
▁याशिवाय	-5686
▁परिणामस्वरूप	-5687
जाती	-5688
संबर	-5689
▁चुना	-5690
▁अनिवार्य	-5691
▁माझ्यावर	-5692
चि	-5693
▁लक	-5694
▁रोजग	-5695
▁स्कू	-5696
ग्रस्त	-5697
▁भिंती	-5698
▁तत्त्व	-5699
▁शानदार	-5700
▁36	-5701
▁ईमान	-5702
▁नसते	-5703
ापर्यंत	-5704
▁पुष्टि	-5705
▁येत्या	-5706
▁सर्वांनी	-5707
▁स्टार्टअप	-5708
ौल	-5709
▁F	-5710
विर	-5711
▁आइ	-5712
▁देतात	-5713
▁याकूब	-5714
▁शांती	-5715
▁पातळीवर	-5716
▁सर्वश्रेष्ठ	-5717
▁पुरे	-5718
▁खालील	-5719
▁स्तरीय	-5720
▁स्थिरता	-5721
▁देशभरातील	-5722
-21	-5723
▁नॅ	-5724
्यातून	-5725
▁उपकरणों	-5726
▁देण्याचे	-5727
▁सत्या	-5728
▁जितेंद्र	-5729
▁अधिकाऱ्यां	-5730
कश	-5731
SME	-5732
▁कॉर	-5733
▁खेत	-5734
▁कहीं	-5735
▁द्यावे	-5736
ईम	-5737
एसए	-5738
्डी	-5739
माणिक	-5740
▁नगरी	-5741
▁पाठ्य	-5742
▁बदलने	-5743
▁उज्ज्व	-5744
▁बुलाया	-5745
टो	-5746
▁आती	-5747
▁अद्य	-5748
▁गुफा	-5749
▁दाखव	-5750
▁पीने	-5751
▁बलों	-5752
▁अवश्य	-5753
▁धान्य	-5754
▁L	-5755
जूद	-5756
राचा	-5757
▁बावजूद	-5758
▁सिद्धांत	-5759
ब्ब	-5760
▁तोड	-5761
तालों	-5762
▁आईटी	-5763
▁बारह	-5764
▁विपण	-5765
▁मारले	-5766
▁ख्रिस्त	-5767
षक	-5768
▁किर	-5769
▁कोणता	-5770
▁पलिश्	-5771
▁स्पर्श	-5772
▁अस्पतालों	-5773
तेला	-5774
▁दुः	-5775
▁दोघ	-5776
▁तोड़	-5777
▁रक्कम	-5778
▁रोगों	-5779
▁सुरेश	-5780
▁दरवाजे	-5781
▁वाटचाल	-5782
▁रिकॉर्ड	-5783
िना	-5784
प्पा	-5785
▁पैसा	-5786
▁सबका	-5787
▁आम्हांला	-5788
▁ह्याच्या	-5789
लोम	-5790
न्तु	-5791
ोपीय	-5792
▁अंधे	-5793
▁फैला	-5794
▁बेटा	-5795
▁सेंट	-5796
▁अवशेष	-5797
▁धार्मिकता	-5798
▁अंतरराष्ट्रीय	-5799
▁सेट	-5800
▁जनरल	-5801
▁नारा	-5802
▁उसमें	-5803
▁राहून	-5804
▁केलेली	-5805
▁झालेले	-5806
▁दिसंबर	-5807
▁शिफार	-5808
▁निदेशक	-5809
▁वाळवंट	-5810
▁पत्रकार	-5811
▁कालावधीत	-5812
▁बांग्लादेश	-5813
▁वही	-5814
▁पृष्ठ	-5815
▁मोबाईल	-5816
▁महासागर	-5817
▁नियंत्रित	-5818
▁हेत	-5819
वर्ती	-5820
▁सत्ता	-5821
▁त्याच्यावर	-5822
▁नेम	-5823
▁असले	-5824
लाचे	-5825
सीटी	-5826
▁हार्	-5827
▁तैनात	-5828
▁नाविन	-5829
▁संचालित	-5830
▁आपापल्या	-5831
धीश	-5832
िनल	-5833
ब्बा	-5834
▁अस्थ	-5835
▁शिकायत	-5836
18	-5837
ur	-5838
ैमान	-5839
▁खान	-5840
▁फसल	-5841
▁केरळ	-5842
▁पड़ा	-5843
▁पहिले	-5844
▁मिलने	-5845
▁बुद्धिमान	-5846
▁सीओवीआईडी	-5847
▁क्षेत्राला	-5848
ँचे	-5849
▁नक्की	-5850
▁विषया	-5851
▁नव्हता	-5852
▁स्वाक्षऱ्या	-5853
ेंज	-5854
▁कसा	-5855
▁ठेवला	-5856
▁यावर्षी	-5857
▁32	-5858
कांना	-5859
ेश्वर	-5860
▁प्रोट	-5861
▁मिलता	-5862
▁राजकुमार	-5863
वता	-5864
क्का	-5865
पाला	-5866
सेवा	-5867
▁भरा	-5868
ासाठी	-5869
▁गोळा	-5870
▁प्रक्रिय	-5871
ध्व	-5872
ल्थ	-5873
▁अन्	-5874
▁रैं	-5875
▁सागर	-5876
▁सगळ्या	-5877
▁पर्यटना	-5878
जरी	-5879
लीय	-5880
▁NI	-5881
▁मुख्या	-5882
▁विक्री	-5883
▁चित्रपटा	-5884
▁लोकतंत्र	-5885
ारस	-5886
ृति	-5887
नातून	-5888
▁अक्ष	-5889
▁नींव	-5890
▁मिश्र	-5891
▁मूत्र	-5892
▁लोकसभा	-5893
मिळना	-5894
▁अहरोन	-5895
▁जल्दी	-5896
▁एकात्म	-5897
▁स्तुती	-5898
▁कुटुंबा	-5899
▁जिम्मेदारी	-5900
▁सांगितल्या	-5901
हारी	-5902
▁जरी	-5903
▁पकड़	-5904
▁नाहीस	-5905
▁आजच्या	-5906
▁नावाने	-5907
▁द्राक्ष	-5908
▁यात्रियों	-5909
▁प्रतिष्ठित	-5910
▁कमतर	-5911
▁यहोश	-5912
▁स्पे	-5913
▁स्नान	-5914
ad	-5915
ंटों	-5916
याचा	-5917
▁नमु	-5918
▁हवी	-5919
▁करीब	-5920
▁देखी	-5921
▁गावात	-5922
▁चर्चे	-5923
▁विकासाच्या	-5924
har	-5925
किम	-5926
इटिस	-5927
▁इसने	-5928
डब्ल्यू	-5929
विश्वास	-5930
▁शत्रूं	-5931
▁श्रीलंका	-5932
▁सामुदायिक	-5933
▁इलेक्ट्रॉनिक	-5934
पीएम	-5935
▁कैद	-5936
▁दबा	-5937
▁दशक	-5938
▁वजह	-5939
ार्ता	-5940
▁फार्	-5941
▁शस्त्र	-5942
▁सुलैमान	-5943
▁लेन	-5944
▁आकर्षक	-5945
▁उपयोगी	-5946
▁प्रतिसाद	-5947
लमोन	-5948
▁डोळ	-5949
▁यानी	-5950
▁दुर्घ	-5951
▁सुझाव	-5952
▁श्रमिकों	-5953
40	-5954
▁अडथ	-5955
▁काउ	-5956
▁जेट	-5957
▁पाल	-5958
▁बनी	-5959
▁मनो	-5960
▁छाया	-5961
▁माजी	-5962
▁मातृ	-5963
▁साहित	-5964
▁सर्वसा	-5965
▁प्रवासा	-5966
▁कार्यक्षम	-5967
कै	-5968
▁९	-5969
र्द	-5970
▁जेवण	-5971
शाच्या	-5972
▁तारीख	-5973
▁प्रकट	-5974
▁एक्सप्रेस	-5975
प्ट	-5976
बान	-5977
▁वळ	-5978
त्ये	-5979
▁निती	-5980
▁तुरंत	-5981
▁दुसरी	-5982
▁प्रसं	-5983
▁मंजूर	-5984
▁पक्षों	-5985
▁पाहिजेत	-5986
▁प्रामाणिक	-5987
दाब	-5988
▁हड	-5989
▁यहोया	-5990
▁वचनबद्ध	-5991
▁जिल्ह्यात	-5992
▁परिषदेच्या	-5993
यण	-5994
टान	-5995
वाचे	-5996
▁भरो	-5997
▁डिजा	-5998
▁शिशु	-5999
▁इमारत	-6000
▁ऊर्जे	-6001
▁क्रेड	-6002
▁पहाड़	-6003
▁पीपीई	-6004
▁सुधारण	-6005
▁कुठल्या	-6006
ंबू	-6007
▁कोश	-6008
▁ट्रस्ट	-6009
▁दिनानिमित्त	-6010
▁पत	-6011
मुक्त	-6012
तीच्या	-6013
▁ऊँचाई	-6014
▁दोहरा	-6015
▁गांधीजी	-6016
▁निवडणूक	-6017
▁अय	-6018
विला	-6019
ोबार	-6020
▁चढ़	-6021
▁ताब	-6022
▁तित	-6023
▁लगेच	-6024
▁अधिकांश	-6025
गन	-6026
धुनिक	-6027
स्टीट	-6028
▁एम्स	-6029
▁व्यास	-6030
▁शलमोन	-6031
▁ट्रांस	-6032
▁रणनीति	-6033
▁समूहों	-6034
व्व	-6035
र्चा	-6036
▁अंड	-6037
▁अमा	-6038
▁चौक	-6039
▁निदान	-6040
▁प्रां	-6041
▁स्त्रिया	-6042
▁वर्षाच्या	-6043
▁क्षेत्रातल्या	-6044
▁V	-6045
मधे	-6046
विरुध्द	-6047
▁पाठिंबा	-6048
▁असल्याने	-6049
▁इलेक्ट्रॉनिक्स	-6050
गंध	-6051
▁टू	-6052
ांति	-6053
निर्म	-6054
▁पाने	-6055
▁रहना	-6056
▁लागतो	-6057
▁येशूला	-6058
▁परिचालन	-6059
▁नेतृत्वा	-6060
▁करनी	-6061
▁नदीच्या	-6062
▁दफ	-6063
▁उभर	-6064
▁बाई	-6065
▁यावे	-6066
▁प्रवाश	-6067
▁क्रेडिट	-6068
▁अहमदाबाद	-6069
लाब	-6070
▁तळ	-6071
▁इफ्	-6072
▁इन्फ	-6073
▁निरी	-6074
▁मिळू	-6075
▁आलेले	-6076
▁हिंसा	-6077
▁देशाची	-6078
▁बंदरगाह	-6079
▁संस्करण	-6080
▁अपेक्षित	-6081
▁योजनेच्या	-6082
▁करण्याबाबत	-6083
गोल	-6084
▁सण	-6085
ज्या	-6086
▁संच	-6087
▁टर्म	-6088
▁उपक्रमा	-6089
वीं	-6090
▁Mo	-6091
▁असत	-6092
▁साद	-6093
▁कारा	-6094
▁सदैव	-6095
▁सापड	-6096
▁लांबी	-6097
▁उर्वरक	-6098
▁आवश्यकताओं	-6099
▁E	-6100
▁गठन	-6101
▁पिढी	-6102
▁फरवरी	-6103
▁याकोब	-6104
स्ट्रेल	-6105
▁सावधान	-6106
जय	-6107
आयटी	-6108
▁आजा	-6109
▁टुक	-6110
▁खाना	-6111
▁रूग्	-6112
▁याह्वे	-6113
▁दरवर्षी	-6114
▁पर्यावर	-6115
▁कर्मियों	-6116
मह	-6117
कीन	-6118
जीन	-6119
श्म	-6120
िले	-6121
▁मोह	-6122
▁गिला	-6123
▁वाहि	-6124
▁उद्धार	-6125
▁वृद्धी	-6126
▁ठेवण्यासाठी	-6127
▁मंग	-6128
▁राग	-6129
▁चीनी	-6130
▁यज्ञ	-6131
▁विपणन	-6132
▁सहमती	-6133
▁सुरक्षे	-6134
▁हस्तक्षेप	-6135
कडी	-6136
▁गौ	-6137
क्तिक	-6138
▁गुलाम	-6139
▁पाहता	-6140
▁वनस्प	-6141
▁आधारशिला	-6142
▁दहशतवादा	-6143
▁अत्याधुनिक	-6144
बलि	-6145
डीपी	-6146
डीला	-6147
▁फिल	-6148
▁रवि	-6149
▁खूपच	-6150
▁विसर	-6151
▁म्यान	-6152
▁विद्युती	-6153
id	-6154
नल	-6155
रीन	-6156
▁45	-6157
भूमि	-6158
▁डेव	-6159
▁माय	-6160
▁ग्लो	-6161
▁धारा	-6162
▁नेते	-6163
▁संभा	-6164
स्ट्री	-6165
▁टेक्न	-6166
▁बातों	-6167
▁शहरात	-6168
▁मानवता	-6169
▁चमत्कार	-6170
▁घेतलेल्या	-6171
gov	-6172
्डे	-6173
▁अवगत	-6174
▁प्रतियोग	-6175
▁पाठ्यक्रम	-6176
▁विद्यार्थ्यांना	-6177
फु	-6178
फारिश	-6179
्यांमार	-6180
▁बैंकों	-6181
▁सड़कों	-6182
▁सिफारिश	-6183
▁पारदर्शक	-6184
▁इस्राएलचा	-6185
▁वैज्ञानिकों	-6186
IB	-6187
शिप	-6188
▁चिन	-6189
▁खोटे	-6190
▁किंमत	-6191
▁कनेक्शन	-6192
▁रुग्णालय	-6193
ळाचे	-6194
▁199	-6195
▁इंग	-6196
▁MSME	-6197
▁अधीन	-6198
▁आएगा	-6199
▁मनोर	-6200
▁सिनेमा	-6201
▁समुद्रा	-6202
▁देणाऱ्या	-6203
▁हट	-6204
कालिक	-6205
▁खादी	-6206
▁झुंड	-6207
▁पाहत	-6208
▁विधान	-6209
▁प्रदूषण	-6210
▁विवेकान	-6211
पर्य	-6212
▁आपणा	-6213
▁कष्ट	-6214
▁सोबत	-6215
▁दुर्ल	-6216
▁राज्यांना	-6217
पक	-6218
ुरा	-6219
▁तेच	-6220
▁विश	-6221
त्रिम	-6222
ल्ल्या	-6223
वतंत्र	-6224
▁अनुसर	-6225
▁ज्यात	-6226
▁बातें	-6227
▁रोखण्यासाठी	-6228
निट	-6229
ानु	-6230
▁नब	-6231
▁उदय	-6232
▁पीक	-6233
शालोम	-6234
लप	-6235
▁पस	-6236
ांडा	-6237
रुस्ती	-6238
▁उठाया	-6239
▁लेंगे	-6240
▁हिंदी	-6241
मिळनाडू	-6242
▁हितधारकों	-6243
▁७	-6244
▁198	-6245
▁निधन	-6246
▁टाकले	-6247
▁समजून	-6248
▁सहमति	-6249
लिंग	-6250
ेंडर	-6251
▁पारि	-6252
▁सृजन	-6253
▁एजेंस	-6254
▁पारित	-6255
▁पेशकश	-6256
▁तापमान	-6257
▁पलिश्तियों	-6258
ॉर	-6259
▁हन	-6260
▁भेद	-6261
▁गरजा	-6262
वृत्ति	-6263
्यामीन	-6264
▁कोयला	-6265
▁क्रिया	-6266
▁जोड़ने	-6267
▁मुंबईत	-6268
▁देशांना	-6269
▁राजाच्या	-6270
▁देण्याच्या	-6271
ॉम	-6272
पार	-6273
▁ईय	-6274
▁बू	-6275
ढ्या	-6276
▁पॉल	-6277
▁बिक	-6278
▁एंटी	-6279
▁दिसत	-6280
▁उठाने	-6281
▁त्वचे	-6282
▁समानता	-6283
▁केल्याने	-6284
▁दावीदाने	-6285
▁लोकांसाठी	-6286
कला	-6287
▁कन	-6288
▁अंक	-6289
वल्या	-6290
▁खत्म	-6291
▁धर्मी	-6292
▁रुपयांच्या	-6293
▁o	-6294
▁बीस	-6295
ोलॉजी	-6296
▁गेलो	-6297
▁दर्ज	-6298
नेस्सर	-6299
▁इंटरनेट	-6300
▁त्यातून	-6301
ैम	-6302
▁छाती	-6303
▁टपाल	-6304
▁पाहू	-6305
▁मिनट	-6306
▁लेना	-6307
▁स्थला	-6308
▁खरोखरच	-6309
▁दक्षता	-6310
▁साक्षी	-6311
▁भागातील	-6312
▁प्रकाशित	-6313
▁रुग्णाला	-6314
ed	-6315
▁चुक	-6316
▁निघून	-6317
▁पोलीस	-6318
▁शताब्दी	-6319
▁म्यानमार	-6320
▁राहणाऱ्या	-6321
▁प्रतिनिधित्व	-6322
CC	-6323
▁65	-6324
मिता	-6325
▁अहाब	-6326
▁निगम	-6327
▁भेड़	-6328
▁सारा	-6329
▁कोळसा	-6330
▁सुधारों	-6331
▁यांच्यातील	-6332
ंजन	-6333
▁किट	-6334
▁खनि	-6335
ांतून	-6336
▁ईंधन	-6337
▁कॉलेज	-6338
▁अभिषेक	-6339
▁सुवर्ण	-6340
▁अबशालोम	-6341
▁यापूर्वी	-6342
▁विवेकानंद	-6343
FF	-6344
पिंग	-6345
ब्रा	-6346
▁ठोस	-6347
▁भूल	-6348
▁मील	-6349
▁विटा	-6350
▁पलिष्ट	-6351
▁म्हणाली	-6352
▁पाकिस्तान	-6353
बिया	-6354
क्रिया	-6355
तुम	-6356
▁धू	-6357
▁बारी	-6358
▁बाळग	-6359
ान्वित	-6360
▁अनुसू	-6361
▁खासगी	-6362
▁गुप्त	-6363
▁मंडळी	-6364
▁ज्याला	-6365
▁देशांनी	-6366
▁परिषदेचे	-6367
ओगे	-6368
थाम	-6369
पया	-6370
▁मसा	-6371
▁रिज	-6372
▁थोडे	-6373
▁पुरा	-6374
▁याने	-6375
▁देवता	-6376
▁येथून	-6377
▁रशिया	-6378
▁देण्या	-6379
दोम	-6380
ोसी	-6381
पाच्या	-6382
▁जोडणी	-6383
▁नेपाळ	-6384
▁मासिक	-6385
▁कलाकार	-6386
▁तरीकों	-6387
▁पाठविले	-6388
▁लाभान्वित	-6389
▁पंतप्रधानांचे	-6390
फाय	-6391
स्मा	-6392
▁दुःख	-6393
▁बाढ़	-6394
ंबेडकर	-6395
▁अहवाल	-6396
▁रात्र	-6397
▁इंस्टीट	-6398
▁म्यांमार	-6399
▁प्रमाणावर	-6400
▁माझ्याकडे	-6401
▁सांख्यिकी	-6402
▁जाण्यासाठी	-6403
घ्र	-6404
▁(2	-6405
र्फे	-6406
▁जैन	-6407
▁कहना	-6408
▁मुफ्त	-6409
▁हृदया	-6410
▁गरजेचे	-6411
▁गाड्या	-6412
▁स्वयंसे	-6413
▁अध्यादेश	-6414
सभ	-6415
▁34	-6416
▁वय	-6417
वाने	-6418
▁लड़	-6419
▁करणा	-6420
▁चट्ट	-6421
▁चलने	-6422
▁जाएँ	-6423
▁सांस	-6424
▁सुगंध	-6425
▁महीनों	-6426
प्रमाणेच	-6427
परि	-6428
थ्या	-6429
▁बळी	-6430
▁श्व	-6431
▁औषधी	-6432
▁जागे	-6433
▁वारसा	-6434
▁2020-21	-6435
▁कृत्रिम	-6436
▁समाविष्ट	-6437
मंत्र्यांनी	-6438
▁देशांतर्गत	-6439
क्रो	-6440
लग्न	-6441
ासार	-6442
▁मरा	-6443
▁तोमर	-6444
▁दिवा	-6445
▁नीती	-6446
▁बहाद	-6447
▁शैली	-6448
्यांशी	-6449
▁ज्यांनी	-6450
▁वाहतुकी	-6451
▁ठेवण्यात	-6452
▁निर्माता	-6453
▁निवृत्ती	-6454
दिक	-6455
▁अँ	-6456
▁हज	-6457
सिंग	-6458
▁आना	-6459
▁तेव	-6460
▁दीन	-6461
▁बंधन	-6462
▁आराखडा	-6463
ion	-6464
▁इंट	-6465
▁बरेच	-6466
▁दूरसं	-6467
▁परदेश	-6468
▁मानना	-6469
▁खूबसूर	-6470
▁अब्राहा	-6471
▁मुलाकात	-6472
स्ट्रेलिया	-6473
▁यांच्याशी	-6474
▁प्रसंस्करण	-6475
▁खज	-6476
वानी	-6477
▁अस्	-6478
▁दाहि	-6479
▁भरोसा	-6480
क्षेत्र	-6481
▁प्रकाशन	-6482
▁योजनेचा	-6483
▁करण्यावर	-6484
िफ	-6485
पोषण	-6486
▁इन्	-6487
▁ध्व	-6488
▁तज्ञ	-6489
▁माती	-6490
▁वर्ण	-6491
▁पॅकेज	-6492
▁अंग्रे	-6493
▁मदतीने	-6494
IS	-6495
▁हाच	-6496
▁काना	-6497
▁बनाता	-6498
▁रस्ता	-6499
▁विकार	-6500
▁सुभाष	-6501
▁निर्णया	-6502
▁याविषयी	-6503
गां	-6504
▁टाका	-6505
▁बादल	-6506
द्वारा	-6507
▁लकड़ी	-6508
▁सूचित	-6509
▁उभारणी	-6510
▁निवासियों	-6511
▁त्याचप्रमाणे	-6512
▁कू	-6513
▁फिट	-6514
▁मधे	-6515
▁आयकर	-6516
▁आर्ट	-6517
▁गिरा	-6518
▁डेविड	-6519
▁पड़ोसी	-6520
▁पेशेवर	-6521
▁समारंभ	-6522
▁सांगून	-6523
▁सिंहासन	-6524
ळण	-6525
कारा	-6526
▁बंग	-6527
▁मूळ	-6528
▁आपसे	-6529
▁अक्षय	-6530
▁गरीबी	-6531
▁घालून	-6532
▁मिलाकर	-6533
▁तिसऱ्या	-6534
▁न्यायाधीश	-6535
▁आत्मविश्वास	-6536
ोजे	-6537
▁चू	-6538
▁१०	-6539
काचा	-6540
पीएस	-6541
▁कथा	-6542
▁काग	-6543
▁पडले	-6544
▁मंचा	-6545
▁साली	-6546
▁हंगा	-6547
समावेश	-6548
▁दुसरे	-6549
▁अर्पित	-6550
▁एलपीजी	-6551
▁केल्यानंतर	-6552
17	-6553
कता	-6554
एनएस	-6555
▁आसाम	-6556
▁चर्च	-6557
▁टीका	-6558
▁मणिप	-6559
▁निंदा	-6560
▁विश्ले	-6561
▁निर्मला	-6562
▁मार्गावर	-6563
▁क्षेत्रामध्ये	-6564
▁रॉ	-6565
▁194	-6566
▁लसी	-6567
▁बढ़ते	-6568
▁दहशतवाद	-6569
▁मंत्रियों	-6570
▁विभागाच्या	-6571
▁प्रतिनिधियों	-6572
स्‍	-6573
▁छू	-6574
मागे	-6575
▁फ्ल	-6576
▁स्तन	-6577
िकीकरण	-6578
▁कार्म	-6579
▁घंटों	-6580
▁मोशेला	-6581
▁म्हणणे	-6582
▁विकल्प	-6583
ांपेक्षा	-6584
▁जमिनीवर	-6585
▁उत्पादने	-6586
डन	-6587
ह्न	-6588
▁हथ	-6589
आईटी	-6590
तेवर	-6591
दाता	-6592
ांकडे	-6593
▁उपहार	-6594
▁तेथून	-6595
▁नेपाल	-6596
▁फाउंड	-6597
▁बनवले	-6598
▁यहोशू	-6599
▁स्तुति	-6600
▁महत्वाकां	-6601
▁यासंदर्भात	-6602
इप	-6603
दिव	-6604
प्रस	-6605
▁गेह	-6606
▁देतील	-6607
▁बोलला	-6608
▁मिळून	-6609
▁जरूरतों	-6610
▁जेणेकरून	-6611
RA	-6612
ल्य	-6613
▁मॅ	-6614
▁नात	-6615
▁पंख	-6616
▁खराब	-6617
▁पट्ट	-6618
▁पड़े	-6619
▁यादी	-6620
▁येणे	-6621
स्थानी	-6622
▁लागली	-6623
▁वेगळे	-6624
जातियों	-6625
▁महत्वाचा	-6626
▁हस्तांतरण	-6627
पुरव	-6628
्राव	-6629
▁पकड	-6630
▁तनाव	-6631
▁मतलब	-6632
▁आवाज़	-6633
▁वाटेल	-6634
▁इमारती	-6635
▁प्रतिनिधिमंड	-6636
उट	-6637
करा	-6638
ूपी	-6639
▁पौल	-6640
▁प्रि	-6641
▁लंबी	-6642
▁सीमित	-6643
▁विशेषत	-6644
▁प्रोटोक	-6645
▁सारख्या	-6646
▁अर्थसंकल्प	-6647
▁1000	-6648
▁नाते	-6649
▁मालम	-6650
▁जोडले	-6651
▁दैनिक	-6652
▁परमाण	-6653
▁वापरा	-6654
▁उपकरणे	-6655
▁मोशेने	-6656
▁संलग्न	-6657
▁झाल्यानंतर	-6658
▁परिस्थितीत	-6659
▁ऐकू	-6660
▁खां	-6661
▁नरे	-6662
▁बाह	-6663
▁औषधि	-6664
▁साडे	-6665
▁संतोष	-6666
्यपूर्ण	-6667
▁ग्लोबल	-6668
▁विकासाला	-6669
▁33	-6670
चालक	-6671
▁झूठ	-6672
▁हटा	-6673
▁किरण	-6674
▁हेल्थ	-6675
▁कामकाज	-6676
▁निमंत्र	-6677
▁यहूदाच्या	-6678
▁वाढवण्यासाठी	-6679
▁फें	-6680
▁हमी	-6681
ल्‍ली	-6682
सर्या	-6683
▁डोळे	-6684
ांबाबत	-6685
▁आनंदी	-6686
▁वाढवि	-6687
▁सस्ती	-6688
▁निवारण	-6689
▁व्हावी	-6690
▁समर्पण	-6691
▁इच्छितो	-6692
▁कोणतीही	-6693
अलग	-6694
कोट	-6695
▁सोप	-6696
▁गोत्र	-6697
▁जगाला	-6698
▁उद्देशाने	-6699
▁42	-6700
▁55	-6701
▁आधुन	-6702
▁जर्म	-6703
स्परिक	-6704
▁उड्डा	-6705
▁मानतो	-6706
▁मिलती	-6707
▁तक्रार	-6708
▁परेशान	-6709
▁केल्याबद्दल	-6710
डीआर	-6711
डेकर	-6712
नाने	-6713
▁धान	-6714
▁शिल	-6715
▁कधीच	-6716
▁क्षण	-6717
▁बोली	-6718
▁खर्चा	-6719
▁जोड़ा	-6720
▁यहोशा	-6721
▁डिजाइन	-6722
▁कोणताही	-6723
▁गणराज्य	-6724
▁प्रकारची	-6725
▁यहूदियों	-6726
▁जू	-6727
▁अकाद	-6728
▁पाठी	-6729
▁बहुता	-6730
▁जुन्या	-6731
▁देण्याचा	-6732
▁संकल्पना	-6733
र्भ	-6734
कावर	-6735
▁सपने	-6736
▁परमाणु	-6737
▁दिल्‍ली	-6738
▁फाउंडेशन	-6739
▁पारस्परिक	-6740
▁सर्वसमावेश	-6741
़ा	-6742
ज्य	-6743
ज़ार	-6744
सभेत	-6745
▁क्व	-6746
▁दैव	-6747
▁पंच	-6748
▁अखंड	-6749
▁काले	-6750
▁सौभाग्य	-6751
कीया	-6752
त्तर	-6753
साइट	-6754
▁हाय	-6755
द्वार	-6756
हाय्य	-6757
▁मासे	-6758
ासंगिक	-6759
▁इंजीन	-6760
▁जीवनात	-6761
▁पाण्यात	-6762
▁प्रासंगिक	-6763
▁संग्रहालया	-6764
▁इंस्टीट्यूट	-6765
ोन्	-6766
▁48	-6767
▁निया	-6768
▁बेटों	-6769
▁यात्री	-6770
▁याह्वेह	-6771
▁प्रदेशातील	-6772
▁मंत्र्यांनी	-6773
▁अम्	-6774
▁इको	-6775
▁गेट	-6776
▁किले	-6777
▁गुना	-6778
▁देशाचे	-6779
▁घराण्या	-6780
▁सख	-6781
रण्य	-6782
▁महल	-6783
▁शही	-6784
▁रामा	-6785
▁ठेवली	-6786
▁पूंजी	-6787
▁स्वप्	-6788
▁झालेली	-6789
▁देवदूत	-6790
▁ह्याला	-6791
▁संख्येने	-6792
▁प्रोटोकॉल	-6793
टेक	-6794
रोन	-6795
▁Sh	-6796
चानक	-6797
सीएम	-6798
▁आकर	-6799
▁चयन	-6800
▁मोक	-6801
▁इतना	-6802
▁सांगू	-6803
स्थापित	-6804
▁करायची	-6805
▁हिमालय	-6806
▁कोणतेही	-6807
▁मान्यवर	-6808
▁इस्राएली	-6809
▁पीढ़ियों	-6810
▁होण्याचा	-6811
▁परराष्ट्र	-6812
कून	-6813
ऐवजी	-6814
▁पचा	-6815
स्तीत	-6816
▁अनंत	-6817
▁गावा	-6818
▁बंधु	-6819
▁व्ही	-6820
▁अचानक	-6821
ांपर्यंत	-6822
▁अत्यधिक	-6823
▁प्रशिक्षित	-6824
थॉन	-6825
यती	-6826
रीच	-6827
सीए	-6828
▁ऑपर	-6829
▁जाल	-6830
▁मले	-6831
▁रिट	-6832
▁जरूरी	-6833
▁अवस्था	-6834
▁सेवकों	-6835
▁ह्यांच्या	-6836
▁38	-6837
नेशिया	-6838
▁मागील	-6839
▁ह्याचा	-6840
▁प्रथाओं	-6841
▁पृथ्वीवर	-6842
ai	-6843
▁इंद	-6844
▁मिश	-6845
▁मीट	-6846
▁ईयोब	-6847
▁मुळे	-6848
ांबरोबर	-6849
▁इतक्या	-6850
▁पर्याय	-6851
▁रहेंगे	-6852
बोन	-6853
लिश	-6854
▁अके	-6855
▁गंग	-6856
▁झाड	-6857
▁दंड	-6858
▁शाप	-6859
▁सवल	-6860
▁झालेला	-6861
▁लिहिले	-6862
शास्त्रा	-6863
▁ज्यामध्ये	-6864
▁तंत्रज्ञानाच्या	-6865
ल्फ	-6866
▁सीई	-6867
▁अपील	-6868
णामुळे	-6869
▁आभासी	-6870
▁उपासना	-6871
▁आयुष्यात	-6872
ॉड	-6873
निक	-6874
▁अमर	-6875
▁आणा	-6876
▁ओदि	-6877
▁छूट	-6878
▁बेड	-6879
▁सद्	-6880
▁मोफत	-6881
▁रद्द	-6882
▁बचाने	-6883
▁युक्त	-6884
▁शर्मा	-6885
▁जगभरात	-6886
▁समृद्धी	-6887
▁झाल्याचे	-6888
▁सुविधाएं	-6889
ॅप	-6890
एनए	-6891
▁नज	-6892
शैली	-6893
ांकन	-6894
▁हरी	-6895
▁झालो	-6896
क्ताओं	-6897
▁वाढेल	-6898
▁हजारो	-6899
▁लेवियों	-6900
▁रुपयांचे	-6901
▁s	-6902
उंट	-6903
▁भव	-6904
▁सॉ	-6905
▁बोस	-6906
िलियन	-6907
▁कठिन	-6908
▁दिमाग	-6909
▁प्रेस	-6910
▁रक्ता	-6911
▁प्राण्या	-6912
▁त्याप्रमाणे	-6913
ँस	-6914
वेशन	-6915
ृत्य	-6916
▁खाल	-6917
▁तिक	-6918
बाहेर	-6919
▁मिनिट	-6920
▁परन्तु	-6921
▁पुढाकार	-6922
▁लाभदायक	-6923
▁राज्यातील	-6924
वीस	-6925
ज्जी	-6926
▁आकड	-6927
▁नियु	-6928
▁नौदल	-6929
▁पोषक	-6930
▁बजाय	-6931
▁पाठवले	-6932
▁अवलंबून	-6933
▁जावडेकर	-6934
यह	-6935
रेट	-6936
दुखी	-6937
द्दा	-6938
▁सरल	-6939
ोग्रा	-6940
▁अनुमो	-6941
▁गवाही	-6942
▁ढांचा	-6943
▁देवाण	-6944
▁निकाय	-6945
▁मिळतो	-6946
▁मणिपुर	-6947
▁रोमांच	-6948
▁सरकारला	-6949
▁टूट	-6950
▁नाक	-6951
योग्य	-6952
▁बालक	-6953
▁कंपन्या	-6954
▁मार्गाने	-6955
▁प्रदर्शनी	-6956
▁पूर्वोत्तर	-6957
▁सर्वसमावेशक	-6958
ातडी	-6959
▁एला	-6960
▁दाँ	-6961
▁वेश	-6962
िकाओं	-6963
▁बेहद	-6964
▁उपदेश	-6965
▁केलेला	-6966
▁प्रचंड	-6967
▁रिसर्च	-6968
मंत्रियों	-6969
▁विभागाने	-6970
तेत	-6971
िमी	-6972
▁th	-6973
प्रे	-6974
▁एकल	-6975
▁कशी	-6976
▁लष्	-6977
▁कराल	-6978
▁अभिने	-6979
▁तीसरे	-6980
▁मस्ति	-6981
▁द्यायला	-6982
▁संशोधित	-6983
▁संवेदनशील	-6984
▁माझ्यासाठी	-6985
ऊस	-6986
पत	-6987
ंचन	-6988
भरणी	-6989
िकरण	-6990
▁130	-6991
▁सिखा	-6992
▁अड्डे	-6993
▁आजादी	-6994
▁पहिली	-6995
▁औपचारिक	-6996
▁प्रतियोगिता	-6997
ुप	-6998
राव	-6999
▁घन	-7000
स्टि	-7001
▁थोड	-7002
▁वास	-7003
▁2030	-7004
▁कप्त	-7005
▁ज्ये	-7006
▁काढले	-7007
▁साबित	-7008
▁उपभोक्ता	-7009
▁पायाभरणी	-7010
▁जिम्मेदार	-7011
▁तामिळनाडू	-7012
बली	-7013
मेल	-7014
▁अट	-7015
▁जळ	-7016
्यूर	-7017
▁मुँ	-7018
▁सुस	-7019
▁इतका	-7020
▁भीती	-7021
▁हाउस	-7022
▁कहानी	-7023
▁यातून	-7024
▁अनुरूप	-7025
▁निकाला	-7026
▁राहतात	-7027
▁शरीरात	-7028
▁सुरुवा	-7029
▁स्क्री	-7030
▁जनतेच्या	-7031
▁उत्पादकता	-7032
IM	-7033
▁शं	-7034
सरों	-7035
▁बोझ	-7036
▁मरीज	-7037
लपमेंट	-7038
▁न्यून	-7039
▁खाद्या	-7040
▁देशाचा	-7041
▁नियामक	-7042
▁पहाड़ों	-7043
▁सैनिकों	-7044
▁विशेषज्ञों	-7045
el	-7046
रह	-7047
चिक	-7048
दीप	-7049
ोदय	-7050
बिंब	-7051
▁तम्	-7052
▁अफगान	-7053
▁मिट्टी	-7054
▁दुर्घटना	-7055
▁सिंगापुर	-7056
▁एजेंसियों	-7057
▁बीमारियों	-7058
▁मंत्रिमंडळाच्या	-7059
टों	-7060
दला	-7061
धना	-7062
साव	-7063
हीन	-7064
जन्य	-7065
पाशी	-7066
▁कहो	-7067
▁जेल	-7068
▁तसा	-7069
▁खुला	-7070
▁पसंद	-7071
दराबाद	-7072
▁जंगली	-7073
▁लावले	-7074
▁अजूनही	-7075
▁अधिकाधिक	-7076
▁टक्क्यां	-7077
▁त्यापैकी	-7078
ic	-7079
्टर	-7080
▁49	-7081
▁टेक	-7082
▁तशी	-7083
साहेब	-7084
▁वाढी	-7085
▁शाखा	-7086
▁सीबी	-7087
▁शासित	-7088
▁दिवसीय	-7089
▁निर्भर	-7090
▁केंद्रे	-7091
ोत	-7092
भाई	-7093
▁दळण	-7094
▁हिम	-7095
भोवती	-7096
▁गवर्	-7097
▁सुनो	-7098
▁फैसला	-7099
▁श्रद्धा	-7100
जुट	-7101
▁१५	-7102
▁अदा	-7103
▁पर्	-7104
▁मुक	-7105
▁सब्	-7106
▁ऊंचा	-7107
▁पीछा	-7108
▁असणार	-7109
▁कामों	-7110
▁ज्येष्ठ	-7111
▁विटामिन	-7112
▁त्याबद्दल	-7113
▁ऑस्ट्रेलिया	-7114
-17	-7115
▁उर	-7116
▁दरी	-7117
▁वैय	-7118
ांजली	-7119
▁आजही	-7120
▁आएंगे	-7121
▁जिसकी	-7122
▁शिविर	-7123
▁प्रोजे	-7124
▁भंडारण	-7125
▁अपवित्र	-7126
▁प्रतिबिंब	-7127
am	-7128
FFI	-7129
दूक	-7130
लेख	-7131
▁नॉ	-7132
▁गलत	-7133
▁अनुभ	-7134
▁जाति	-7135
▁पडला	-7136
▁पिला	-7137
▁सफाई	-7138
▁सफेद	-7139
▁इफ्फी	-7140
▁जेटली	-7141
▁निरोप	-7142
▁वतीने	-7143
▁डब्ल्यू	-7144
▁नरेन्द्र	-7145
ॅम	-7146
▁जाय	-7147
ारावर	-7148
▁ऐकून	-7149
▁खोली	-7150
▁जिंक	-7151
▁राहात	-7152
▁आयोगाने	-7153
लेक	-7154
ोगु	-7155
▁हॉट	-7156
देशीर	-7157
▁इतनी	-7158
▁दोगु	-7159
▁होटल	-7160
▁अग्नी	-7161
▁साक्ष	-7162
▁राज्यांमध्ये	-7163
▁प्रतिनिधिमंडल	-7164
ताब	-7165
संप	-7166
▁थक	-7167
डीसी	-7168
▁कृत	-7169
▁पाए	-7170
▁भले	-7171
▁साव	-7172
▁इटली	-7173
▁कीमत	-7174
▁त्यो	-7175
▁थोड़	-7176
▁स्टा	-7177
पक्षीय	-7178
▁एकजुट	-7179
▁उंचीवर	-7180
▁नियोजन	-7181
▁संघटना	-7182
ण्य	-7183
▁अक्	-7184
▁देर	-7185
▁पुरानी	-7186
▁जास्तीत	-7187
▁अभ्यासक्रम	-7188
याग	-7189
▁उग	-7190
▁फ़	-7191
वाचा	-7192
▁खबर	-7193
▁मशीन	-7194
ेमध्ये	-7195
▁आधारे	-7196
▁बढ़कर	-7197
▁सर्दी	-7198
ंपर्यंत	-7199
▁नव्हती	-7200
▁त्योहार	-7201
▁विश्लेषण	-7202
कुल	-7203
पाई	-7204
र्तन	-7205
चार्य	-7206
▁अफगा	-7207
▁गरिब	-7208
▁वृत्त	-7209
▁शेवटी	-7210
▁स्टॉक	-7211
▁जाऊंगा	-7212
▁जलमार्ग	-7213
▁एकात्मिक	-7214
▁पारदर्शी	-7215
▁मुख्यालय	-7216
▁विभागाचे	-7217
▁पहिल्यांदा	-7218
▁प्रौद्योगिक	-7219
**	-7220
.”	-7221
▁IC	-7222
▁वग	-7223
काने	-7224
द्रा	-7225
▁300	-7226
▁सरळ	-7227
▁इसहा	-7228
▁खनिज	-7229
▁मेगा	-7230
▁लिंक	-7231
साच्या	-7232
▁मूल्यों	-7233
▁श्रेष्ठ	-7234
▁लोकसंख्य	-7235
▁सर्वांचे	-7236
▁गुड	-7237
▁कुणी	-7238
▁खेळा	-7239
▁यार्	-7240
▁लॉजि	-7241
▁वक्त	-7242
पुरवठा	-7243
▁छुड़ा	-7244
▁महाराज	-7245
▁संरक्षित	-7246
▁पुनरुच्चार	-7247
▁प्रयोगशालाओं	-7248
हद	-7249
ियस	-7250
एमएस	-7251
ार्क	-7252
▁उलट	-7253
त्त्व	-7254
ाराला	-7255
▁फोरम	-7256
▁कर्जा	-7257
▁मानते	-7258
▁वाटले	-7259
▁सीरिया	-7260
▁टर्मिनल	-7261
▁समावेशी	-7262
▁ज्याच्या	-7263
▁वाणिज्यिक	-7264
60	-7265
भागा	-7266
▁Aay	-7267
▁कॉल	-7268
विरोध	-7269
्यांत	-7270
▁खेती	-7271
▁बंदी	-7272
▁अभिनव	-7273
▁उदयोग	-7274
▁दिखाया	-7275
▁नफ	-7276
▁इक्	-7277
▁इनो	-7278
▁नोट	-7279
▁स्ना	-7280
▁त्रिप	-7281
▁सर्वि	-7282
▁मुलाला	-7283
▁राजस्व	-7284
▁सन्दूक	-7285
▁होण्या	-7286
स्वतंत्र	-7287
▁देवताओं	-7288
▁प्रमाणे	-7289
▁करारामुळे	-7290
▁रोजगाराच्या	-7291
इज	-7292
लोड	-7293
पीपी	-7294
प्पट	-7295
▁तिथ	-7296
▁रेख	-7297
▁हीच	-7298
▁Aayog	-7299
▁गार्ड	-7300
▁पावला	-7301
▁अंदाजे	-7302
▁दूसरों	-7303
▁सर्वजण	-7304
करणासाठी	-7305
▁परिश्रम	-7306
▁व्यासपी	-7307
▁ट्रिलियन	-7308
व्यतिरिक्त	-7309
ंटा	-7310
ेतील	-7311
यांना	-7312
▁NITI	-7313
▁जाकर	-7314
▁ताकद	-7315
▁तात्	-7316
▁असावे	-7317
ईपर्यंत	-7318
▁करतांना	-7319
▁माणसाने	-7320
▁दूरसंचार	-7321
▁हैदराबाद	-7322
▁दिग्दर्शक	-7323
▁लोकांमध्ये	-7324
▁सहकार्याने	-7325
75	-7326
मय	-7327
डीत	-7328
▁नील	-7329
ऱ्यात	-7330
▁मानस	-7331
▁विकत	-7332
तांच्या	-7333
वलेल्या	-7334
▁नियमों	-7335
▁कार्मिक	-7336
▁न्यायालय	-7337
▁वैयक्तिक	-7338
▁सिंगापूर	-7339
▁परियोजनाएं	-7340
▁महत्त्वाचे	-7341
बाल	-7342
यत्त	-7343
▁उपज	-7344
▁कलम	-7345
▁तौर	-7346
▁पति	-7347
▁नींद	-7348
▁हक्क	-7349
▁आलेला	-7350
▁उड़ान	-7351
▁उन्नत	-7352
▁हातात	-7353
▁दर्शनीय	-7354
▁न्यूनतम	-7355
▁संक्रमित	-7356
छा	-7357
▁:-	-7358
▁शरण	-7359
▁हून	-7360
वायरस	-7361
ार्थी	-7362
ॉर्डन	-7363
▁घडले	-7364
▁देकर	-7365
ेंव्हा	-7366
▁गिलाद	-7367
▁बच्चा	-7368
▁महानि	-7369
▁योहान	-7370
▁सीतार	-7371
▁अधिकतम	-7372
▁राजदूत	-7373
▁तक्रारी	-7374
▁पश्चिमी	-7375
▁यार्देन	-7376
▁डॉक्टरों	-7377
▁निरीक्षण	-7378
▁महिलांना	-7379
▁इंडोनेशिया	-7380
▁अधिकाऱ्यांना	-7381
चले	-7382
भवती	-7383
ष्ठा	-7384
्यूब	-7385
▁कों	-7386
दृष्ट	-7387
निष्ठ	-7388
▁योगा	-7389
▁फायदे	-7390
▁अद्यया	-7391
▁सिंचाई	-7392
▁व्हायला	-7393
▁उद्योगों	-7394
▁स्वायत्त	-7395
▁प्रशासकीय	-7396
▁चलता	-7397
▁बसून	-7398
▁पहलों	-7399
▁बातमी	-7400
▁स्टेश	-7401
▁विद्युत	-7402
▁तिरस्कार	-7403
▁प्लास्टिक	-7404
ईडी	-7405
तीन	-7406
्येक	-7407
▁गिल	-7408
▁सगळ	-7409
▁इतने	-7410
▁धरती	-7411
▁साहस	-7412
ांमधून	-7413
▁कार्बन	-7414
▁परिभाष	-7415
▁निमित्त	-7416
▁संतुलित	-7417
▁साहित्य	-7418
▁रेखांकित	-7419
मंद	-7420
लोक	-7421
▁पाट	-7422
न्दित	-7423
▁इजरा	-7424
▁जाँच	-7425
▁संतु	-7426
▁पोलिस	-7427
▁अधिकृत	-7428
▁एनसीसी	-7429
▁जॉर्डन	-7430
▁घेतल्या	-7431
▁कुठल्याही	-7432
▁८	-7433
ँची	-7434
लाग	-7435
धारा	-7436
ल्लू	-7437
ूल्य	-7438
▁जीभ	-7439
▁बेच	-7440
▁बायो	-7441
▁आंतरिक	-7442
▁बिक्री	-7443
▁कित्येक	-7444
▁अल्पसंख्य	-7445
वधी	-7446
बाजू	-7447
िस्ट	-7448
▁जाळ	-7449
▁पचास	-7450
▁रंगा	-7451
▁स्ने	-7452
दाताओं	-7453
▁कठिना	-7454
▁कराने	-7455
▁कवरेज	-7456
▁बिजनेस	-7457
▁यिर्मया	-7458
▁मदतीसाठी	-7459
▁त्यामध्ये	-7460
▁अधिकाऱ्यांनी	-7461
▁कॉन्फरन्सिंग	-7462
▁पुढीलप्रमाणे	-7463
▁त्यांच्यासाठी	-7464
ैप	-7465
आईसी	-7466
▁अडक	-7467
▁मद्	-7468
▁हान	-7469
▁अद्व	-7470
▁चिंत	-7471
▁राजे	-7472
त्यक्ष	-7473
▁ओळखले	-7474
▁विनाश	-7475
▁आफ्रिक	-7476
▁ज्ञाना	-7477
▁दुप्पट	-7478
▁महामंड	-7479
▁स्थानक	-7480
▁ह्याचे	-7481
▁सामायिक	-7482
स्ट्रक्चर	-7483
दीय	-7484
▁बसा	-7485
▁आपसी	-7486
▁मोआब	-7487
ांतरित	-7488
▁चिह्न	-7489
▁शिल्प	-7490
▁अम्मोन	-7491
▁नक्कीच	-7492
▁संपन्न	-7493
▁स्थलांतर	-7494
▁वर्षांपूर्वी	-7495
CO	-7496
अन	-7497
क्य	-7498
खार	-7499
▁रड	-7500
ारीत	-7501
ेतून	-7502
▁चैन	-7503
▁झां	-7504
काळात	-7505
▁अभया	-7506
▁असणे	-7507
▁पूरक	-7508
▁ब्रह	-7509
▁तत्पर	-7510
▁पूर्वे	-7511
▁आनन्दित	-7512
▁विश्राम	-7513
▁लक्ष्यों	-7514
▁निर्माताओं	-7515
्रास्ट्रक्चर	-7516
वाट	-7517
▁टॉ	-7518
▁१८	-7519
वादन	-7520
▁मेज	-7521
▁लखन	-7522
▁वैसे	-7523
ोग्राम	-7524
▁आत्ता	-7525
▁थोड़ा	-7526
▁दळणवळ	-7527
▁पुरात	-7528
▁दृष्टीकोन	-7529
▁आधुनिकीकरण	-7530
▁इलेक्ट्रिक	-7531
ंसे	-7532
इंड	-7533
▁उक	-7534
य्या	-7535
राची	-7536
वतात	-7537
▁तथ्य	-7538
▁शासक	-7539
▁सक्ष	-7540
▁हिज्	-7541
▁कमतरता	-7542
▁देवदार	-7543
▁सेवाएं	-7544
▁गर्भवती	-7545
▁लोकांशी	-7546
▁परिस्थित	-7547
▁उद्यमियों	-7548
वह	-7549
▁करण	-7550
▁रान	-7551
▁शतक	-7552
▁डोके	-7553
▁पुरी	-7554
▁होनी	-7555
मार्फत	-7556
हाच्या	-7557
▁ग्रीन	-7558
▁फ्रांस	-7559
▁इकाइयों	-7560
▁स्टेशनों	-7561
▁प्रोजेक्ट	-7562
▁व्यक्तीला	-7563
कत	-7564
▁अँड	-7565
▁चोट	-7566
▁वसा	-7567
धारणा	-7568
▁आश्र	-7569
▁एनसी	-7570
▁ठेवू	-7571
▁मुँह	-7572
▁सीईओ	-7573
▁अफगाण	-7574
▁काउंस	-7575
▁भाग्य	-7576
▁व्हावा	-7577
▁प्रतिज्ञा	-7578
▁लोकसंख्या	-7579
AI	-7580
णीव	-7581
▁मक	-7582
▁एअर	-7583
▁गार	-7584
▁दाखल	-7585
▁पांढ	-7586
▁बिंद	-7587
▁नॅशनल	-7588
▁मद्देन	-7589
▁स्वर्ण	-7590
्यामध्ये	-7591
महा	-7592
▁वॉ	-7593
▁हळ	-7594
प्ति	-7595
▁किश	-7596
▁टाळ	-7597
▁फळे	-7598
▁चलते	-7599
▁राजन	-7600
▁दशकों	-7601
▁देखता	-7602
▁शास्त	-7603
▁किंमती	-7604
▁जहाजों	-7605
▁मिळवून	-7606
▁ट्रेनों	-7607
▁दक्षिणे	-7608
▁फ्रान्स	-7609
▁लोकांवर	-7610
▁माणसांना	-7611
ंतू	-7612
बीर	-7613
वाहत	-7614
▁परकीय	-7615
▁समापन	-7616
▁करणारी	-7617
▁बेटियों	-7618
▁मेट्रिक	-7619
▁याजकाने	-7620
▁जीवनशैली	-7621
▁प्रारंभिक	-7622
ोथ	-7623
वीर	-7624
सरी	-7625
▁गाड	-7626
▁लाए	-7627
▁शेष	-7628
▁उंचा	-7629
▁खुली	-7630
▁छावणी	-7631
▁साइबर	-7632
▁लक्षणे	-7633
▁लागतात	-7634
▁सक्षमी	-7635
▁क्रांति	-7636
▁अधिसूचना	-7637
▁मद्देनजर	-7638
▁अप्रत्यक्ष	-7639
रीज	-7640
▁सॅ	-7641
ळाची	-7642
▁घूम	-7643
▁रत्	-7644
▁असला	-7645
▁मेला	-7646
▁रागा	-7647
▁कदमों	-7648
▁चार्ज	-7649
▁टेस्ट	-7650
▁पेयजल	-7651
ांविषयी	-7652
▁प्यारे	-7653
▁दुष्टों	-7654
▁सरकारचा	-7655
▁सीतारमण	-7656
▁युवकांना	-7657
▁त्यांच्याशी	-7658
दाम	-7659
भरा	-7660
ष्प	-7661
▁1.5	-7662
नातील	-7663
▁वाटतो	-7664
▁संकटे	-7665
▁अनुसूचित	-7666
▁देशासाठी	-7667
▁रेल्वेने	-7668
टीय	-7669
▁पल	-7670
धारक	-7671
वाची	-7672
▁कोप	-7673
▁सुच	-7674
आर्थिक	-7675
▁कपड़ा	-7676
▁धैर्य	-7677
▁अकादमी	-7678
▁संस्थागत	-7679
▁खाद्यान्न	-7680
फेड	-7681
विल	-7682
सभे	-7683
▁of	-7684
एनजी	-7685
टीने	-7686
विंद	-7687
▁195	-7688
▁अरे	-7689
▁परम	-7690
▁यशा	-7691
ीविका	-7692
▁IFFI	-7693
▁जाया	-7694
▁पेशी	-7695
▁द्याय	-7696
▁फिरौन	-7697
▁वाहनों	-7698
▁आजीविका	-7699
▁इस्राएला	-7700
रि	-7701
!";	-7702
ताला	-7703
▁आर्	-7704
▁चंद	-7705
▁बाँ	-7706
▁असाल	-7707
▁उजाड़	-7708
▁कृपया	-7709
▁चिन्ह	-7710
▁जीवंत	-7711
▁नगरात	-7712
▁पेत्र	-7713
▁मालिश	-7714
▁शिवाय	-7715
▁पहुंचा	-7716
▁बहादुर	-7717
▁नमस्कार	-7718
▁न्यायालया	-7719
रेन	-7720
▁टि	-7721
आयसी	-7722
▁नां	-7723
▁शिख	-7724
▁सुट	-7725
दृश्य	-7726
ोरेशन	-7727
▁बऱ्या	-7728
▁बायको	-7729
▁सुटका	-7730
▁आरक्षण	-7731
▁ऑपरेशन	-7732
▁सेक्टर	-7733
▁क्रांती	-7734
▁चिह्नित	-7735
▁विशेषता	-7736
▁अद्वितीय	-7737
▁त्याशिवाय	-7738
▁विद्युतीकरण	-7739
▁नियमशास्त्रा	-7740
धर	-7741
सिड	-7742
▁इंत	-7743
▁टूर	-7744
▁पीठ	-7745
▁पूल	-7746
विकास	-7747
▁कक्षा	-7748
ांबद्दल	-7749
▁आयुक्त	-7750
▁हार्दिक	-7751
आयआर	-7752
शिता	-7753
▁and	-7754
▁टोक	-7755
▁ईस्ट	-7756
▁कोठे	-7757
▁वाढते	-7758
▁हत्या	-7759
▁देताना	-7760
▁सिक्किम	-7761
वाडा	-7762
िप्त	-7763
▁400	-7764
▁लिख	-7765
गावॅट	-7766
तल्या	-7767
▁तिचे	-7768
▁शहरे	-7769
▁आकडेव	-7770
▁निभाई	-7771
▁मुलगी	-7772
▁विवाद	-7773
▁संसदे	-7774
▁स्पेश	-7775
▁दिलेले	-7776
▁श्रीमंत	-7777
▁संपत्ति	-7778
▁मर्यादित	-7779
▁महासंचालक	-7780
▁क्षेत्रांमध्ये	-7781
▁प्रौद्योगिकियों	-7782
बिल	-7783
पूजन	-7784
ूनों	-7785
▁नबु	-7786
ध्वनी	-7787
भगिनी	-7788
▁आणून	-7789
▁आरोप	-7790
▁कचरा	-7791
▁दरात	-7792
▁परिक	-7793
▁मुदत	-7794
▁यूपी	-7795
▁हरित	-7796
▁ठेवणे	-7797
प्रसंगी	-7798
▁घेण्याची	-7799
▁यरुशलेममध्ये	-7800
लर	-7801
म्स	-7802
▁चै	-7803
▁डू	-7804
▁125	-7805
▁PIB	-7806
▁पाई	-7807
▁मीच	-7808
द्दाख	-7809
▁उतार	-7810
▁गहरी	-7811
▁तरतु	-7812
▁पोला	-7813
▁प्रज	-7814
▁मवाब	-7815
वाहाटी	-7816
▁इजरायल	-7817
▁रोकथाम	-7818
निर्मिती	-7819
▁पंजीकरण	-7820
▁अधिसूचित	-7821
▁उपस्थिती	-7822
▁महत्वाकांक्षी	-7823
▁c	-7824
▁t	-7825
ूकी	-7826
▁खड	-7827
▁१२	-7828
ळाला	-7829
▁एकच	-7830
▁पूछा	-7831
▁बसला	-7832
▁लगती	-7833
▁माहित	-7834
▁वर्गा	-7835
▁मूलभूत	-7836
दृष्ट्या	-7837
▁म्हणाल्या	-7838
10	-7839
ट्र	-7840
▁कफ	-7841
▁हॅ	-7842
▁आंक	-7843
▁वसू	-7844
मुवेल	-7845
▁ज्यो	-7846
▁पीयू	-7847
व्यापी	-7848
▁दर्शा	-7849
▁म्हणत	-7850
▁यापैकी	-7851
▁लोकार्	-7852
▁संयंत्र	-7853
▁राज्यांच्या	-7854
▁नेतृत्वाखाली	-7855
निर	-7856
▁तृ	-7857
र्दी	-7858
ष्टिक	-7859
▁तिचा	-7860
▁लग्न	-7861
▁लाखो	-7862
आधारित	-7863
▁ग्रहण	-7864
▁बर्तन	-7865
▁मनाने	-7866
▁साखळी	-7867
▁डोंगरा	-7868
▁मानदंड	-7869
▁संसदीय	-7870
▁अभिवादन	-7871
▁त्यातील	-7872
ER	-7873
कभी	-7874
दोष	-7875
एमटी	-7876
▁गाढ	-7877
▁फेस	-7878
▁रहो	-7879
▁पळून	-7880
सायनिक	-7881
▁योसेफ	-7882
▁वर्धन	-7883
▁अग्रणी	-7884
▁नेताजी	-7885
▁फार्मा	-7886
▁वाढत्या	-7887
▁दुरुस्ती	-7888
▁रुग्णांची	-7889
▁स्वर्गदूत	-7890
टीन	-7891
लाल	-7892
वते	-7893
वाया	-7894
▁कुळ	-7895
वश्यक	-7896
▁असेच	-7897
▁नोकर	-7898
▁मण्ड	-7899
▁तपशील	-7900
▁तलवारी	-7901
▁ह्याने	-7902
▁अभियाना	-7903
▁अभयारण्य	-7904
▁असल्याची	-7905
▁ह्यामुळे	-7906
मल	-7907
टेड	-7908
काची	-7909
सनीय	-7910
स्वा	-7911
▁चाँ	-7912
▁घोड़	-7913
▁धीरे	-7914
▁फारो	-7915
▁पीयूष	-7916
▁बनाते	-7917
▁संघटन	-7918
▁प्रभार	-7919
▁प्रीति	-7920
▁राहिली	-7921
▁रीतीने	-7922
▁वंशातील	-7923
▁रुपयांचा	-7924
ढ़ी	-7925
ोदर	-7926
कृती	-7927
▁अहि	-7928
▁खरा	-7929
▁फूल	-7930
▁लची	-7931
▁शिर	-7932
गोलिक	-7933
िलेटर	-7934
▁सुपर	-7935
▁सायबर	-7936
▁एप्रैम	-7937
ांद्वारे	-7938
▁ईशान्ये	-7939
▁प्रसंगी	-7940
▁भौगोलिक	-7941
▁यूरोपीय	-7942
▁सुधारित	-7943
▁परिपूर्ण	-7944
▁त्याच्याकडे	-7945
काय	-7946
▁44	-7947
काया	-7948
द्दी	-7949
स्सा	-7950
▁वां	-7951
▁खाता	-7952
▁सीमे	-7953
▁अक्सर	-7954
▁जुड़ी	-7955
▁भाकरी	-7956
▁तत्काल	-7957
▁पुढच्या	-7958
▁मस्तिष्क	-7959
▁स्वरूपात	-7960
▁गृहमंत्री	-7961
लिम	-7962
यानक	-7963
▁सफर	-7964
▁मतदान	-7965
▁लावून	-7966
▁शीघ्र	-7967
▁ज्याने	-7968
▁तरतुदी	-7969
▁राहावे	-7970
▁विनियम	-7971
▁शमुवेल	-7972
▁आकडेवारी	-7973
▁संध्याकाळी	-7974
मेद	-7975
वर्ध	-7976
▁कंध	-7977
▁बुरा	-7978
▁अग्नि	-7979
▁एमओयू	-7980
▁पावसा	-7981
▁लंबाई	-7982
▁लागणार	-7983
▁वेळेवर	-7984
▁दोहराया	-7985
▁पत्थरों	-7986
▁विकलांग	-7987
▁व्हिडीओ	-7988
▁आयोगाच्या	-7989
▁कर्मचाऱ्यां	-7990
▁लस	-7991
डीआई	-7992
▁ढंग	-7993
यांवर	-7994
▁अर्ध	-7995
▁परता	-7996
▁याआधी	-7997
▁विषयों	-7998
▁दलाच्या	-7999
AN	-8000
ीर	-8001
ent	-8002
▁शम	-8003
पेयी	-8004
▁कोच	-8005
▁कोड	-8006
▁थंड	-8007
▁अरुण	-8008
▁आस्थ	-8009
▁सरोव	-8010
▁हेतू	-8011
▁बाहरी	-8012
▁व्यभि	-8013
▁विरोधी	-8014
▁स्वतःला	-8015
▁गुवाहाटी	-8016
▁झाल्यामुळे	-8017
▁शाळ	-8018
▁जोशी	-8019
▁लेता	-8020
▁मनाया	-8021
▁व्यर्थ	-8022
▁प्रक्षे	-8023
▁लोकार्पण	-8024
▁आपल्याकडे	-8025
▁भारतामध्ये	-8026
▁प्रक्रियाओं	-8027
il	-8028
फो	-8029
गीर	-8030
ळणी	-8031
िमा	-8032
▁II	-8033
▁बहन	-8034
▁सेल	-8035
▁शर्म	-8036
ितांना	-8037
▁भयानक	-8038
▁राहतो	-8039
ंपेक्षा	-8040
▁मानकों	-8041
▁रचनात्मक	-8042
▁प्रणालियों	-8043
▁मंत्रालयाचे	-8044
▁महिन्याच्या	-8045
re	-8046
ल्यास	-8047
शक्ति	-8048
▁कमीत	-8049
▁किरा	-8050
▁समजा	-8051
▁सूरज	-8052
▁एलईडी	-8053
▁दुकान	-8054
▁फैसले	-8055
▁भौतिक	-8056
▁निमंत्रण	-8057
▁मनापासून	-8058
▁स्वीकृति	-8059
▁कार्यान्वित	-8060
ंटर	-8061
फिक	-8062
शीर	-8063
▁अणु	-8064
▁खतरा	-8065
▁चेता	-8066
▁नावे	-8067
▁एफ्रा	-8068
▁पारिस्थित	-8069
▁कल्याणासाठी	-8070
▁क्षेत्राच्या	-8071
▁रम	-8072
स्कर	-8073
▁अथक	-8074
▁अही	-8075
▁दोषी	-8076
▁व्यय	-8077
▁इब्रा	-8078
▁नृत्य	-8079
ंदर्भात	-8080
▁आव्हाने	-8081
▁दुसर्या	-8082
ल्याबद्दल	-8083
▁टप्प्यात	-8084
▁रासायनिक	-8085
▁विश्वासा	-8086
बेन	-8087
▁पळ	-8088
सिडी	-8089
्रेस	-8090
▁कोष	-8091
▁तोच	-8092
▁परे	-8093
▁लेह	-8094
ांहून	-8095
▁मुस्	-8096
▁शहाण	-8097
▁सोपे	-8098
▁हिता	-8099
ांसोबत	-8100
▁भूतान	-8101
▁त्रिपुरा	-8102
▁भारतासाठी	-8103
▁अशाप्रकारे	-8104
MR	-8105
ag	-8106
www	-8107
न्ड	-8108
ूंना	-8109
ज्ज्ञ	-8110
नीकरण	-8111
रीकरण	-8112
▁केलं	-8113
▁क्ला	-8114
▁पाऊस	-8115
ांनाही	-8116
▁अपडेट	-8117
▁वसूली	-8118
▁रखेंगे	-8119
▁जानवरों	-8120
▁पौष्टिक	-8121
▁वाजपेयी	-8122
▁प्रदेशों	-8123
▁प्रतीक्षा	-8124
▁फाइ	-8125
▁रूस	-8126
▁नबुख	-8127
▁भस्म	-8128
▁केदार	-8129
▁कॉरिड	-8130
▁तम्बू	-8131
▁नाकार	-8132
▁बांधव	-8133
▁बोलतो	-8134
▁विधवा	-8135
▁कारवाई	-8136
▁गुन्हे	-8137
▁स्मृति	-8138
्रोद्योग	-8139
▁मालवाहत	-8140
▁विभागात	-8141
▁महानिदेशक	-8142
सळ	-8143
मेशन	-8144
ियाल	-8145
▁चिर	-8146
▁नान	-8147
▁सवि	-8148
▁गवाह	-8149
▁परवड	-8150
▁मेले	-8151
▁कप्तान	-8152
▁देणारे	-8153
▁प्रयाग	-8154
▁स्थाना	-8155
▁क्षमताओं	-8156
AT	-8157
गीय	-8158
जाग	-8159
लोन	-8160
्याज	-8161
▁संगम	-8162
ानियों	-8163
▁निष्क	-8164
▁राहिल	-8165
▁वेळेत	-8166
वण्याची	-8167
▁कारखान	-8168
▁लद्दाख	-8169
▁स्थलों	-8170
▁होमार्	-8171
▁अंग्रेजी	-8172
▁एकत्रितपणे	-8173
15	-8174
पणी	-8175
ूसु	-8176
▁कव	-8177
▁पच	-8178
▁आजू	-8179
▁आदी	-8180
▁बिम	-8181
▁घेतो	-8182
▁निधि	-8183
▁सगळी	-8184
▁समिट	-8185
▁आँखें	-8186
▁युध्द	-8187
▁विक्रम	-8188
▁होमबलि	-8189
ेंटिलेटर	-8190
▁खूबसूरत	-8191
▁निकोबार	-8192
▁इंजीनियर	-8193
▁ज्यांच्या	-8194
▁अल्पसंख्यक	-8195
न्ट	-8196
वनी	-8197
▁कस	-8198
▁the	-8199
▁घडा	-8200
▁राव	-8201
▁सकल	-8202
नेशनल	-8203
लीकरण	-8204
▁जानी	-8205
▁मारे	-8206
▁भूटान	-8207
▁सपनों	-8208
▁थोड्या	-8209
▁निवासी	-8210
▁परिचित	-8211
▁घ्यायला	-8212
▁पुनरुत्	-8213
▁छत्तीसगढ़	-8214
▁प्रतिपादन	-8215
▁प्रकल्पांचे	-8216
▁राष्ट्रपतींनी	-8217
मेड	-8218
▁बॅ	-8219
्योन	-8220
▁...	-8221
▁दखल	-8222
▁कनान	-8223
▁कांग	-8224
▁धारण	-8225
▁नौका	-8226
▁जाओगे	-8227
▁दिसते	-8228
▁दुर्बल	-8229
▁वार्ता	-8230
▁इस्त्रा	-8231
▁अद्ययावत	-8232
▁कार्यभार	-8233
▁संकेतस्थ	-8234
▁सांगितली	-8235
▁बहुपक्षीय	-8236
▁दिशानिर्देशों	-8237
भौ	-8238
ंटन	-8239
ोगा	-8240
ोधक	-8241
▁भो	-8242
ूंनी	-8243
▁सिम	-8244
▁कंटे	-8245
▁मोटर	-8246
▁सूचन	-8247
माच्या	-8248
स्टिवल	-8249
▁अगोदर	-8250
▁आवेदन	-8251
▁पापों	-8252
▁बारिश	-8253
▁जनसंख्या	-8254
▁पर्वतावर	-8255
▁पृष्ठभूमि	-8256
▁प्रयोगशाळ	-8257
▁सफलतापूर्वक	-8258
16	-8259
▁53	-8260
▁३०	-8261
शोधन	-8262
िएशन	-8263
▁250	-8264
▁खाण	-8265
▁फूड	-8266
▁शाय	-8267
▁छिपा	-8268
▁मागा	-8269
▁सभाग	-8270
▁तरीका	-8271
▁दस्ता	-8272
▁देखना	-8273
▁नितीन	-8274
▁प्रकोप	-8275
▁बैंकिंग	-8276
गिल	-8277
न्त	-8278
मेक	-8279
▁शल	-8280
ग्रा	-8281
र्जन	-8282
्राय	-8283
▁ट्व	-8284
ार्पण	-8285
▁पापी	-8286
▁बनले	-8287
▁कितना	-8288
▁डोंगर	-8289
▁ब्याज	-8290
▁जीडीपी	-8291
▁निर्या	-8292
▁तुमच्यावर	-8293
▁स्वाक्षरी	-8294
▁उपराष्ट्रपतींनी	-8295
कम	-8296
ापू	-8297
ovid	-8298
डिंग	-8299
सिटी	-8300
▁हॉल	-8301
ड़ेकर	-8302
▁लिखित	-8303
▁कार्गो	-8304
▁दाहिने	-8305
▁समाचार	-8306
▁जावड़ेकर	-8307
▁महत्त्वाची	-8308
गिर	-8309
▁कण	-8310
ार्म	-8311
▁हरे	-8312
▁अखिल	-8313
▁कच्छ	-8314
▁काया	-8315
▁कायदे	-8316
▁जैविक	-8317
▁सीखने	-8318
▁डिग्री	-8319
▁तेलंगाना	-8320
▁प्रतिदिन	-8321
▁टेक्नोलॉजी	-8322
▁कार्यक्रमाला	-8323
un	-8324
िकार	-8325
▁गंध	-8326
▁दात	-8327
▁सोह	-8328
▁आकलन	-8329
▁एनएच	-8330
▁रूग्ण	-8331
▁संकटा	-8332
▁स्टेट	-8333
▁करायचा	-8334
▁खासदार	-8335
▁पार्टी	-8336
▁कार्यशा	-8337
▁देशांमधील	-8338
▁पारदर्शिता	-8339
▁क्षेत्रासाठी	-8340
इत	-8341
ईक	-8342
ँगा	-8343
ँसी	-8344
चंद	-8345
भीत	-8346
पानी	-8347
▁गीत	-8348
▁जॉन	-8349
▁नंबर	-8350
▁भक्त	-8351
▁अवकाश	-8352
▁ऑक्सी	-8353
▁दुग्ध	-8354
▁बराबर	-8355
▁भावने	-8356
▁मोहीम	-8357
किय्याह	-8358
▁मण्डली	-8359
▁निर्देशित	-8360
बध	-8361
धीरे	-8362
▁उल्	-8363
▁खाऊ	-8364
▁निभ	-8365
▁पढ़	-8366
▁पोच	-8367
▁शोम	-8368
▁2013	-8369
▁तंबू	-8370
▁संजय	-8371
▁साखर	-8372
▁हड्ड	-8373
▁जाणीव	-8374
▁टप्पा	-8375
▁पीड़ा	-8376
▁शेतात	-8377
▁पहुंचने	-8378
▁फेस्टिवल	-8379
▁रेल्वेच्या	-8380
▁प्रतिस्पर्धा	-8381
▁क्	-8382
एससी	-8383
पक्ष	-8384
▁कब्	-8385
एमओयू	-8386
▁थंडी	-8387
▁शायद	-8388
▁अशक्त	-8389
▁वीरता	-8390
▁नबुखद्	-8391
▁निसर्ग	-8392
▁पहलुओं	-8393
▁मिसळून	-8394
▁जगाच्या	-8395
▁दस्तावे	-8396
▁श्रीनगर	-8397
▁सरकारची	-8398
us	-8399
ळक	-8400
ter	-8401
लता	-8402
▁जॉ	-8403
▁चाय	-8404
▁सैल	-8405
ब्रोन	-8406
ेसाठी	-8407
ोनिया	-8408
▁गावे	-8409
▁वरील	-8410
सरकारी	-8411
▁आढळले	-8412
▁अपनाने	-8413
▁बढ़ाकर	-8414
▁निसर्गा	-8415
▁बाजारों	-8416
▁किल्ल्या	-8417
▁संदेष्टा	-8418
▁जयंतीनिमित्त	-8419
▁वस्त्रोद्योग	-8420
MS	-8421
▁01	-8422
▁दाल	-8423
▁भाज	-8424
▁घोडे	-8425
▁झाडे	-8426
▁घेतात	-8427
▁जिनकी	-8428
▁नितिन	-8429
▁सुनने	-8430
ापेक्षा	-8431
▁अवस्थेत	-8432
▁लक्षणीय	-8433
▁आदरांजली	-8434
▁दूरध्वनी	-8435
▁शिक्षकों	-8436
▁उद्योगांना	-8437
▁देशवासियों	-8438
▁महाराष्ट्रा	-8439
घन	-8440
नन	-8441
फान	-8442
▁52	-8443
चलित	-8444
वयास	-8445
्रीत	-8446
▁मेल	-8447
▁रेट	-8448
▁शहद	-8449
▁शून	-8450
▁सजा	-8451
जुर्ग	-8452
▁फेरी	-8453
▁सवाल	-8454
▁बाधित	-8455
▁अनुवाद	-8456
▁जर्मनी	-8457
▁वर्गों	-8458
▁सुश्री	-8459
▁पाहायला	-8460
विद्यालया	-8461
▁अत्यावश्यक	-8462
ऊदी	-8463
नॉल	-8464
ुअल	-8465
मोडी	-8466
▁जमी	-8467
▁भरी	-8468
क्रमी	-8469
भाविक	-8470
▁वंशा	-8471
▁शंभर	-8472
▁सोयी	-8473
्रीकरण	-8474
▁देखकर	-8475
▁पूर्त	-8476
▁माहौल	-8477
▁सोडले	-8478
▁इंतजार	-8479
▁तैयारी	-8480
▁योगदाना	-8481
▁राज्यां	-8482
▁चिकित्सक	-8483
▁समुदायों	-8484
▁गृहनिर्माण	-8485
▁पर्यटकांना	-8486
▁सर्वांसाठी	-8487
▁होण्याच्या	-8488
▁अफगानिस्तान	-8489
ैक	-8490
डीए	-8491
धीन	-8492
रान	-8493
िमय	-8494
बाजी	-8495
▁औसत	-8496
▁विस	-8497
जातीय	-8498
तांची	-8499
▁2021	-8500
▁जाळे	-8501
▁नर्म	-8502
▁बढ़े	-8503
▁मुश्	-8504
▁सावध	-8505
▁किफाय	-8506
▁ठेवतो	-8507
▁निश्च	-8508
▁भयभीत	-8509
▁हज़ार	-8510
▁बुजुर्ग	-8511
▁सविस्तर	-8512
▁उत्कृष्टता	-8513
hi	-8514
िण	-8515
▁%	-8516
han	-8517
वाड	-8518
्रल	-8519
▁थर	-8520
काशी	-8521
लाचा	-8522
ूसुफ	-8523
▁अनो	-8524
▁कंट	-8525
▁घास	-8526
▁पद्	-8527
पट्टी	-8528
▁अपार	-8529
▁टिका	-8530
▁धोखा	-8531
▁नर्स	-8532
▁पापा	-8533
▁बनवि	-8534
▁बिया	-8535
▁वादा	-8536
▁दैनंद	-8537
▁बोलता	-8538
▁वनस्पती	-8539
क्षणासाठी	-8540
▁पाण्याने	-8541
▁अन्नधान्य	-8542
▁बाबासाहेब	-8543
▁प्लेटफॉर्म	-8544
शोन	-8545
▁आधीच	-8546
▁तिची	-8547
▁देगी	-8548
▁निकष	-8549
▁पटना	-8550
▁अंधार	-8551
▁इसहाक	-8552
▁खातों	-8553
▁पद्धत	-8554
▁यूसुफ	-8555
▁रहस्य	-8556
▁सच्चा	-8557
▁असणारे	-8558
▁पुनर्व	-8559
▁बांधणी	-8560
▁विपरीत	-8561
▁क्रमांक	-8562
▁सार्वभौ	-8563
▁ईमानदारी	-8564
▁तुमच्याकडे	-8565
डाख	-8566
िणी	-8567
ेंड	-8568
▁साज	-8569
▁हिल	-8570
▁उष्ण	-8571
▁खतरे	-8572
▁यंदा	-8573
▁थोड़ी	-8574
▁भर्ती	-8575
▁वर्ल्ड	-8576
▁विभागों	-8577
▁बनवण्यासाठी	-8578
-3	-8579
रम	-8580
दाद	-8581
यरी	-8582
च्ची	-8583
मूएल	-8584
▁इस्प	-8585
▁पावर	-8586
▁जीवनस	-8587
▁मालिक	-8588
▁विद्व	-8589
▁सतर्क	-8590
▁ताब्यात	-8591
▁शिष्यों	-8592
▁पराक्रमी	-8593
▁नबुखद्नेस्सर	-8594
सरा	-8595
▁घेर	-8596
▁ठोक	-8597
▁सब्त	-8598
▁सौदी	-8599
धिकारी	-8600
▁अंतर्	-8601
▁समझने	-8602
▁दीनदया	-8603
▁रेडियो	-8604
▁संतुलन	-8605
▁सद्भाव	-8606
▁स्वीडन	-8607
▁मनोरंजन	-8608
▁पदार्थों	-8609
▁कार्यशाला	-8610
▁कर्मचाऱ्यांना	-8611
ha	-8612
फोन	-8613
ूलन	-8614
▁95	-8615
▁नय	-8616
एफसी	-8617
तमंद	-8618
सिंह	-8619
िकेट	-8620
▁-20	-8621
क्षिक	-8622
▁अमीर	-8623
▁जीवा	-8624
▁नगरे	-8625
▁ब्लॉक	-8626
▁मजदूर	-8627
▁विषयी	-8628
▁आयआयटी	-8629
▁उड्डाण	-8630
▁क्रमां	-8631
▁नदियों	-8632
▁स्पर्धे	-8633
▁सल्लागार	-8634
▁आकांक्षाओं	-8635
▁विद्यापीठा	-8636
▁अफगाणिस्तान	-8637
▁पंतप्रधानांना	-8638
▁W	-8639
लाची	-8640
▁www	-8641
▁नमक	-8642
▁लाज	-8643
▁जाएं	-8644
▁सौंप	-8645
ऱ्याला	-8646
▁वडिला	-8647
▁वर्णन	-8648
▁व्याज	-8649
▁सॉफ्ट	-8650
▁हितों	-8651
्यानंतर	-8652
▁एशियाई	-8653
▁बांधले	-8654
▁ब्रह्म	-8655
▁2016-17	-8656
▁असाधारण	-8657
▁हेब्रोन	-8658
▁जाण्याची	-8659
▁परिषदेला	-8660
▁सांगण्यात	-8661
▁केल्यामुळे	-8662
चरण	-8663
रखा	-8664
ोरा	-8665
▁हद	-8666
▁कोठ	-8667
▁सिन	-8668
मार्क	-8669
▁काला	-8670
▁जाणे	-8671
▁नेहर	-8672
▁बापू	-8673
▁भलाई	-8674
▁वहीं	-8675
▁हाइड	-8676
बाच्या	-8677
▁उन्हा	-8678
▁चट्टान	-8679
▁सक्रीय	-8680
▁सब्सिडी	-8681
▁स्कूलों	-8682
▁यिर्मयाह	-8683
▁तुमच्यासाठी	-8684
▁नियमशास्त्र	-8685
णि	-8686
ांध	-8687
▁74	-8688
▁इश	-8689
▁अजन	-8690
▁आउट	-8691
▁बहि	-8692
▁वात	-8693
घेवाण	-8694
पर्यत	-8695
वतीने	-8696
▁विधि	-8697
▁सपना	-8698
▁जायचे	-8699
▁बोलणे	-8700
▁वाहून	-8701
▁स्टील	-8702
▁एकीकरण	-8703
▁मिश्रण	-8704
▁रिटर्न	-8705
ऱ्याच्या	-8706
▁उभारण्यात	-8707
▁विस्तारित	-8708
▁39	-8709
▁72	-8710
याची	-8711
िंगत	-8712
▁खोक	-8713
▁गोर	-8714
▁हाई	-8715
▁चालत	-8716
▁दबाव	-8717
▁ध्ये	-8718
▁मेघा	-8719
▁यूनि	-8720
▁शिला	-8721
▁अकेले	-8722
▁देखें	-8723
▁बताते	-8724
▁राहते	-8725
▁लढाईत	-8726
▁होंगी	-8727
▁उजव्या	-8728
▁जनजातीय	-8729
▁दैनंदिन	-8730
▁संभावित	-8731
▁शहरांमध्ये	-8732
▁संस्थेच्या	-8733
ing	-8734
▁खर	-8735
▁फो	-8736
र्पण	-8737
▁कमा	-8738
▁घेव	-8739
▁चोर	-8740
▁ठहर	-8741
▁माप	-8742
▁अलिक	-8743
▁आपात	-8744
▁उड्ड	-8745
▁नानक	-8746
विमर्श	-8747
▁कृष्ण	-8748
▁क्लिक	-8749
▁नौवहन	-8750
▁प्रकरण	-8751
▁बऱ्याच	-8752
▁होणारे	-8753
▁वेबसाइट	-8754
▁कोणालाही	-8755
▁भविष्यद्व	-8756
▁वृद्धिंगत	-8757
▁उद्देश्यों	-8758
▁प्रमाणपत्र	-8759
▁व्यतिरिक्त	-8760
AS	-8761
ुआ	-8762
फाट	-8763
वणार	-8764
▁रोश	-8765
ख्यात	-8766
ज्जित	-8767
लादेश	-8768
▁अब्द	-8769
▁एकही	-8770
▁मछली	-8771
▁शलमो	-8772
▁रवाना	-8773
▁एफ्राईम	-8774
▁त्यानुसार	-8775
▁स्वाभाविक	-8776
दास	-8777
पीओ	-8778
▁इंज	-8779
दाच्या	-8780
▁चौथ्या	-8781
▁पंचायत	-8782
▁संस्थांना	-8783
ॉस	-8784
जीर	-8785
्ति	-8786
म्मद	-8787
ीकरण	-8788
▁आधे	-8789
▁पुत	-8790
क्रमण	-8791
ब्लिक	-8792
संस्थ	-8793
▁तप्त	-8794
▁पाइप	-8795
▁मुड़	-8796
जागृती	-8797
▁चालीस	-8798
▁आशियाई	-8799
▁गाँवों	-8800
▁बँकिंग	-8801
▁सिय्योन	-8802
▁निष्कर्ष	-8803
▁व्याप्ती	-8804
▁वर्षांच्या	-8805
▁सहकार्यासाठी	-8806
बों	-8807
संर	-8808
▁इज	-8809
म्या	-8810
स्को	-8811
▁शूर	-8812
वेदना	-8813
▁पोखर	-8814
▁हैंड	-8815
▁ग्रंथ	-8816
▁तोडगा	-8817
▁रोशनी	-8818
▁शत्रु	-8819
▁कारगिल	-8820
▁नावाचा	-8821
▁पार्सल	-8822
ण्याबाबत	-8823
▁बोलतांना	-8824
▁व्याख्या	-8825
,";	-8826
ंथी	-8827
स्या	-8828
▁196	-8829
▁कले	-8830
ंमुळे	-8831
▁कळेल	-8832
▁मेळा	-8833
सुध्दा	-8834
▁काहीच	-8835
▁वाढली	-8836
▁शिमोन	-8837
विज्ञान	-8838
▁गठबंधन	-8839
▁वसलेले	-8840
▁होणारा	-8841
▁अस्तित्	-8842
▁इनोवेशन	-8843
▁यहूदाचा	-8844
▁यहूदातील	-8845
▁विश्वसनीय	-8846
▁संस्थांच्या	-8847
वो	-8848
▁तह	-8849
▁ओला	-8850
▁शेख	-8851
▁कमरे	-8852
▁कुंड	-8853
▁गंगे	-8854
▁चौथा	-8855
▁शहीद	-8856
▁सब्ज	-8857
▁आजारी	-8858
▁आभारी	-8859
▁पिछली	-8860
▁बताता	-8861
▁शमूएल	-8862
विरोधात	-8863
▁अनुप्र	-8864
▁उड्डयन	-8865
▁नमूनों	-8866
▁यापुढे	-8867
▁एकमात्र	-8868
▁तकनीकों	-8869
▁नीतियों	-8870
▁मुश्किल	-8871
▁रैंकिंग	-8872
AY	-8873
गढ	-8874
ीम	-8875
तौर	-8876
सास	-8877
▁43	-8878
▁56	-8879
त्रे	-8880
▁खतर	-8881
▁चूक	-8882
▁भरे	-8883
पुरुष	-8884
▁अमृत	-8885
▁समझा	-8886
▁सुखद	-8887
▁नेहरू	-8888
▁समस्य	-8889
▁हिंदु	-8890
▁अनुसरण	-8891
▁खोट्या	-8892
▁सीमाओं	-8893
▁शेवटच्या	-8894
▁साथीच्या	-8895
थर	-8896
ंदे	-8897
बरी	-8898
ापक	-8899
ैकी	-8900
पिता	-8901
मिया	-8902
▁कना	-8903
▁चली	-8904
▁जणू	-8905
▁धबध	-8906
▁नमन	-8907
लंबित	-8908
▁चावल	-8909
ंत्रिक	-8910
▁तीसरा	-8911
▁वाजता	-8912
▁शब्बा	-8913
▁दुर्गम	-8914
▁सेनाओं	-8915
▁घडामोडी	-8916
▁दुष्टता	-8917
▁जरूरतमंद	-8918
▁प्रतिकूल	-8919
▁विकासाचे	-8920
▁बाबेलच्या	-8921
95	-8922
ro	-8923
▁O	-8924
दूस	-8925
पुत	-8926
वती	-8927
ष्म	-8928
िवृ	-8929
▁46	-8930
कैया	-8931
हिता	-8932
▁दुप	-8933
स्करी	-8934
▁टिप्	-8935
▁पापे	-8936
▁लेखा	-8937
स्वच्छ	-8938
▁खेलों	-8939
▁महिने	-8940
▁मालकी	-8941
▁मॉडेल	-8942
▁दहशतवादी	-8943
▁रुग्णालयात	-8944
▁स्पर्धात्मक	-8945
ड़ब	-8946
साई	-8947
▁झो	-8948
▁छवि	-8949
▁माफ	-8950
▁अनाज	-8951
▁शिवा	-8952
▁पोलाद	-8953
▁घटनाओं	-8954
▁दळणवळण	-8955
▁नवीनतम	-8956
▁मास्टर	-8957
▁स्वराज	-8958
▁स्वस्त	-8959
▁खात्यात	-8960
▁गणमान्य	-8961
▁उद्यानात	-8962
▁गेलेल्या	-8963
▁जनजागृती	-8964
▁प्रसारित	-8965
▁प्रशासनिक	-8966
▁वर्षांपासून	-8967
कोष	-8968
▁गढ़	-8969
ांतील	-8970
▁आणीन	-8971
▁किंग	-8972
▁थोडा	-8973
▁रानी	-8974
▁इंग्र	-8975
▁घराने	-8976
▁याजकों	-8977
▁कानूनों	-8978
▁द्वितीय	-8979
▁वेंकैया	-8980
▁राज्यसभा	-8981
▁इंटरनेशनल	-8982
▁प्रतिनिधि	-8983
▁नाविन्यपूर्ण	-8984
▁पारिस्थितिकी	-8985
भु	-8986
बंद	-8987
बाई	-8988
आईआर	-8989
▁फेक	-8990
▁भास	-8991
क्षेत	-8992
▁अतीत	-8993
▁जलाश	-8994
▁मच्छ	-8995
▁लडाख	-8996
▁वेशी	-8997
▁जनावर	-8998
वण्याचा	-8999
ांनुसार	-9000
▁अहवाला	-9001
▁उज्ज्वला	-9002
▁डोंगरावर	-9003
▁तुझ्यावर	-9004
▁प्रत्येकाला	-9005
जक	-9006
▁91	-9007
▁झर	-9008
क्कर	-9009
सीआर	-9010
ियार	-9011
▁आळा	-9012
▁चेक	-9013
▁बोट	-9014
समवेत	-9015
▁चीज़	-9016
▁दावत	-9017
▁अपमान	-9018
▁अलगाव	-9019
▁चरणों	-9020
▁महसूल	-9021
वण्याचे	-9022
▁एफडीआई	-9023
▁पुत्रा	-9024
▁मुद्दा	-9025
▁कंपन्यांना	-9026
NS	-9027
लेय	-9028
ोंग	-9029
▁टॅ	-9030
रेखा	-9031
लेगा	-9032
्रेट	-9033
▁गों	-9034
▁दफन	-9035
▁पंड	-9036
▁लोह	-9037
▁वेद	-9038
▁उमेद	-9039
▁कोणा	-9040
▁सिंध	-9041
वानिवृ	-9042
▁अलीशा	-9043
▁जवळचे	-9044
▁डेयरी	-9045
▁पन्ना	-9046
▁लचीला	-9047
▁छोड़कर	-9048
▁तस्करी	-9049
▁शेजारी	-9050
▁दूरदर्शन	-9051
▁पहाड़ियों	-9052
▁गुंतवणूकदार	-9053
▁महाविद्यालय	-9054
पीए	-9055
वेट	-9056
ेंत	-9057
▁जगत	-9058
▁धोक	-9059
▁नबी	-9060
नाथान	-9061
▁गाडी	-9062
▁दूता	-9063
▁बचने	-9064
▁सकाळ	-9065
पदार्थ	-9066
पासूनच	-9067
रित्या	-9068
▁असावा	-9069
▁ईपीएफ	-9070
▁उचलली	-9071
▁निधना	-9072
▁पार्ट	-9073
▁सिंचन	-9074
▁हिंदू	-9075
▁10,000	-9076
▁इस्पात	-9077
▁उपचारा	-9078
▁भाषाओं	-9079
▁लेनदेन	-9080
▁वाढवणे	-9081
▁स्पेशल	-9082
▁विषयावर	-9083
▁मालमत्ता	-9084
▁किनार्यावर	-9085
14	-9086
▁85	-9087
▁आश	-9088
आयआय	-9089
गांठ	-9090
ठ्या	-9091
ैतिक	-9092
▁ग्ल	-9093
▁मजा	-9094
▁सिक	-9095
▁हेल	-9096
पणाने	-9097
▁असली	-9098
▁कबूल	-9099
▁कारी	-9100
▁काली	-9101
▁सऊदी	-9102
▁ओदिशा	-9103
▁खऱ्या	-9104
▁ट्रैक	-9105
▁ड्राइ	-9106
▁शून्य	-9107
▁सुप्र	-9108
▁द्यावा	-9109
▁इंडियास	-9110
▁परिसरात	-9111
▁सुंदरता	-9112
▁अनुमानित	-9113
▁उद्यमिता	-9114
२०	-9115
इंट	-9116
रीस	-9117
ासह	-9118
▁पहन	-9119
▁वैध	-9120
जेदार	-9121
तोपरी	-9122
▁अदाल	-9123
▁जुड़	-9124
▁दस्त	-9125
▁दावा	-9126
▁रिया	-9127
▁वैभव	-9128
पालिका	-9129
▁घेणार	-9130
▁पुष्प	-9131
▁बोलने	-9132
▁पाठलाग	-9133
▁मरीजों	-9134
▁मिळतात	-9135
▁महिलांच्या	-9136
70	-9137
फू	-9138
्मी	-9139
करुन	-9140
▁600	-9141
▁जबर	-9142
▁लगी	-9143
▁शौच	-9144
स्टिट	-9145
▁चोरी	-9146
▁फेंक	-9147
▁बहाल	-9148
▁अभ्या	-9149
▁देवदू	-9150
▁नैतिक	-9151
▁युरोप	-9152
भागियों	-9153
▁असंख्य	-9154
▁अमेरिकन	-9155
▁पंजीकृत	-9156
▁मार्केट	-9157
▁होण्यास	-9158
▁वर्षगांठ	-9159
▁स्पर्धेत	-9160
▁एकमेकांना	-9161
▁प्रक्षेपण	-9162
▁राज्यांनी	-9163
▁शरीराच्या	-9164
▁स्थानांतरित	-9165
▁प्रतिभागियों	-9166
▁महत्त्वाच्या	-9167
▁in	-9168
बाला	-9169
लाला	-9170
▁तूच	-9171
▁फोड	-9172
▁बेत	-9173
▁समू	-9174
दारों	-9175
पुत्र	-9176
▁टिकट	-9177
▁मद्य	-9178
▁अनुया	-9179
▁कामात	-9180
▁जानकर	-9181
▁संतों	-9182
▁सिविल	-9183
▁घ्यावी	-9184
▁महानगर	-9185
▁निर्दोष	-9186
▁स्वयंपा	-9187
▁जगभरातील	-9188
▁डेवलपमेंट	-9189
▁धर्मेंद्र	-9190
▁उपलब्धियों	-9191
▁दीर्घकालिक	-9192
▁पुनरुत्थान	-9193
80	-9194
रन	-9195
ठों	-9196
लेल	-9197
्रम	-9198
▁ओढ	-9199
श्री	-9200
▁गईं	-9201
▁घुट	-9202
▁शीत	-9203
दूसरे	-9204
्यूरो	-9205
▁इकाई	-9206
▁बोलू	-9207
▁सुखी	-9208
▁टैक्स	-9209
▁एजेंसी	-9210
▁बिस्तर	-9211
▁मानवीय	-9212
▁आंबेडकर	-9213
▁म्हणालो	-9214
▁दीर्घकालीन	-9215
▁प्रत्यक्षात	-9216
▁राहण्यासाठी	-9217
▁विश्वविद्यालयों	-9218
IR	-9219
ev	-9220
हट	-9221
ष्‍	-9222
▁हब	-9223
माचा	-9224
▁दां	-9225
▁हां	-9226
ंत्रा	-9227
वारों	-9228
▁बालों	-9229
▁भूकंप	-9230
▁विजेत	-9231
▁स्टाफ	-9232
▁काउंसिल	-9233
▁वस्त्रे	-9234
▁पोखरियाल	-9235
▁गोष्टींचा	-9236
▁मुलांच्या	-9237
▁संध्याकाळ	-9238
▁निर्मितीसाठी	-9239
ुड	-9240
200	-9241
धरी	-9242
मोथ	-9243
ुरु	-9244
०००	-9245
बीटी	-9246
▁अनू	-9247
▁भटक	-9248
▁रखे	-9249
▁आणली	-9250
▁लघवी	-9251
▁उल्लं	-9252
▁मधल्या	-9253
▁संशोधक	-9254
▁नकारात्मक	-9255
▁कार्यक्षमता	-9256
▁राष्ट्रांना	-9257
-15	-9258
चला	-9259
रोह	-9260
▁पन	-9261
,500	-9262
रेगा	-9263
▁Shri	-9264
▁डीआर	-9265
▁साठा	-9266
▁विद्र	-9267
▁विवेक	-9268
▁खाण्या	-9269
▁ज्याचा	-9270
▁दाखवले	-9271
करणाच्या	-9272
▁यंत्रणे	-9273
▁लोकांनो	-9274
▁विभाजित	-9275
▁सर्वाना	-9276
▁महोत्सवात	-9277
▁मंत्रालयों	-9278
▁स्क्रीनिंग	-9279
▁परिस्थितियों	-9280
ct	-9281
ुलर	-9282
ेंग	-9283
▁गंत	-9284
▁मणि	-9285
▁ऊँची	-9286
▁काळी	-9287
▁पढ़ा	-9288
तेमुळे	-9289
ासत्ता	-9290
ियांना	-9291
▁जमीनी	-9292
▁म्हणू	-9293
▁स्वाद	-9294
▁ट्रम्प	-9295
▁द्यावी	-9296
▁प्रबंध	-9297
▁अपशिष्ट	-9298
▁दर्शाता	-9299
▁विधानसभा	-9300
▁रस्त्यावर	-9301
▁व्यवस्थित	-9302
PS	-9303
iv	-9304
चय	-9305
दाय	-9306
ोनी	-9307
्‍य	-9308
एमसी	-9309
जियम	-9310
यरोग	-9311
ळाचा	-9312
वाले	-9313
▁कही	-9314
▁दीड	-9315
▁2025	-9316
▁आफ्र	-9317
ख्याने	-9318
▁जितना	-9319
▁मुकुट	-9320
▁नारायण	-9321
▁मिळतील	-9322
▁देण्यास	-9323
▁केंद्रात	-9324
▁भविष्यातील	-9325
▁आत्तापर्यंत	-9326
▁महामारीच्या	-9327
टिल	-9328
हेल	-9329
▁छत	-9330
दाचा	-9331
▁खडक	-9332
▁गटा	-9333
▁लेप	-9334
▁ड्रग	-9335
▁तिरु	-9336
कल्पिक	-9337
▁नागाल	-9338
▁बलवान	-9339
▁दिलेली	-9340
▁भेदभाव	-9341
▁येण्या	-9342
▁देशातून	-9343
▁सुविधाजनक	-9344
जै	-9345
पाट	-9346
रोग	-9347
लील	-9348
ोकस	-9349
क्टे	-9350
बर्ग	-9351
लिटी	-9352
▁Pra	-9353
▁वाघ	-9354
▁राणी	-9355
▁गर्मी	-9356
▁पुकार	-9357
▁पुजार	-9358
▁शालेय	-9359
▁हंगाम	-9360
धिकारिक	-9361
▁उज्ज्वल	-9362
▁फिल्म्स	-9363
▁समितीने	-9364
▁वैकल्पिक	-9365
▁प्रजासत्ता	-9366
▁शेतकऱ्यांचे	-9367
35	-9368
CI	-9369
सच	-9370
▁p	-9371
णित	-9372
्रीट	-9373
▁***	-9374
▁जवा	-9375
▁लाई	-9376
▁2000	-9377
▁चालक	-9378
▁त्रि	-9379
▁क्षति	-9380
▁ठरवले	-9381
▁धूम्र	-9382
▁सियोन	-9383
▁होणारी	-9384
▁बैठकीला	-9385
▁विरोधात	-9386
▁उत्सर्जन	-9387
▁परिवर्तित	-9388
▁पाहण्यासाठी	-9389
AM	-9390
ँग	-9391
ant	-9392
शंक	-9393
वितो	-9394
▁गाद	-9395
▁फोट	-9396
▁मूत	-9397
▁हाइ	-9398
चंद्र	-9399
ळीच्या	-9400
▁फसलों	-9401
▁उपलब्धि	-9402
▁कार्यकाल	-9403
▁केल्याचे	-9404
▁विकासशील	-9405
▁सशक्तिकरण	-9406
▁इंजीनियरिंग	-9407
▁वर्षांमध्ये	-9408
▁नागरिकांच्या	-9409
▁शेतकऱ्यांच्या	-9410
शः	-9411
बेल	-9412
ायझ	-9413
▁नद	-9414
शासन	-9415
▁धूल	-9416
▁नौद	-9417
▁अभाव	-9418
▁रमेश	-9419
▁उत्ते	-9420
▁घेवून	-9421
▁बढ़ता	-9422
▁मतदार	-9423
यांच्या	-9424
ेंतर्गत	-9425
▁घ्यावा	-9426
▁निवडले	-9427
▁लैंगिक	-9428
▁कदाचित्	-9429
▁पशुपालन	-9430
▁नसलेल्या	-9431
▁विलगीकरण	-9432
▁बांगलादेश	-9433
▁महाविद्यालया	-9434
▁आइए	-9435
▁ऑफ़	-9436
▁धरण	-9437
दानिक	-9438
▁नकार	-9439
▁पडली	-9440
▁गिदोन	-9441
▁शिलान	-9442
▁संभाल	-9443
▁पाहिली	-9444
▁प्रांत	-9445
▁डोंगराळ	-9446
▁आधिकारिक	-9447
▁नावाच्या	-9448
▁यांच्यासह	-9449
▁सर्वतोपरी	-9450
▁सर्वोत्कृष्ट	-9451
PE	-9452
ir	-9453
ंपा	-9454
नाक	-9455
हाज	-9456
ंधरा	-9457
▁दीप	-9458
▁रिम	-9459
▁बचाओ	-9460
▁एखादी	-9461
▁ठरणार	-9462
▁तातडी	-9463
▁निहित	-9464
▁परंतू	-9465
▁संप्र	-9466
ोग्राफी	-9467
▁वाहिली	-9468
▁सशक्ती	-9469
▁अनुग्रह	-9470
▁युगांडा	-9471
▁मोठ्याने	-9472
▁समारंभात	-9473
▁कार्यक्रमाचे	-9474
बरा	-9475
ळीस	-9476
▁51	-9477
बांध	-9478
विता	-9479
▁370	-9480
▁एके	-9481
▁देय	-9482
▁कीटा	-9483
▁दानी	-9484
▁लाइफ	-9485
▁सिद्	-9486
संदर्भ	-9487
▁आलेली	-9488
▁टाकून	-9489
▁विश्र	-9490
▁श्वसन	-9491
▁ग्रस्त	-9492
▁विक्रे	-9493
▁शोमरोन	-9494
▁ब्रिटिश	-9495
▁बांधण्यात	-9496
▁यरुशलेमला	-9497
▁कॉर्पोरेशन	-9498
um	-9499
ावर	-9500
ेंद	-9501
▁अच	-9502
श्मा	-9503
▁इजा	-9504
▁मोर	-9505
▁यौन	-9506
ग्राम	-9507
रूद्ध	-9508
▁पडेल	-9509
▁बीएस	-9510
▁भ्रम	-9511
▁शाही	-9512
▁स्थूल	-9513
▁पहुँचने	-9514
▁विकासाची	-9515
▁मुद्यांवर	-9516
▁काढण्यासाठी	-9517
▁श्रद्धांजली	-9518
ीण	-9519
ायचे	-9520
ोषित	-9521
▁कौश	-9522
▁गले	-9523
राबाम	-9524
▁दिसू	-9525
▁वल्ल	-9526
▁करतोस	-9527
▁पुण्य	-9528
▁बनारस	-9529
▁स्तरा	-9530
▁कृत्ये	-9531
▁पेमेंट	-9532
तांत्रिक	-9533
▁चेतावनी	-9534
▁जोडलेले	-9535
▁नव्याने	-9536
▁विकासात	-9537
▁गतिशीलता	-9538
▁बन्यामीन	-9539
▁पुजारियों	-9540
▁प्रस्तुति	-9541
▁प्रायश्चित	-9542
▁राज्याच्या	-9543
▁अर्थव्यवस्थेला	-9544
RI	-9545
कटी	-9546
मेन	-9547
धारी	-9548
▁ऑक्	-9549
▁काठी	-9550
▁विदा	-9551
▁संधि	-9552
▁सूजन	-9553
▁कच्चे	-9554
▁ग्रुप	-9555
▁परिणा	-9556
▁शतकात	-9557
▁अंधेरे	-9558
▁कानूनी	-9559
▁गोव्या	-9560
▁दुर्लभ	-9561
▁निघाला	-9562
▁वेगवान	-9563
▁सभ्यता	-9564
▁आज्ञाओं	-9565
▁मेजबानी	-9566
▁संभाव्य	-9567
▁समारंभा	-9568
▁छत्तीसगड	-9569
▁शलमोनाने	-9570
▁समाजातील	-9571
▁शिलान्यास	-9572
▁शास्त्रज्ञ	-9573
▁&	-9574
यची	-9575
▁64	-9576
▁एह	-9577
▁बोध	-9578
लीकडे	-9579
▁ऊंचे	-9580
▁लिंग	-9581
क्षांत	-9582
▁कारकि	-9583
▁ग्रिड	-9584
नामध्ये	-9585
ारासाठी	-9586
▁कंटेनर	-9587
▁बांधून	-9588
▁शिवाजी	-9589
▁सरासरी	-9590
▁केल्यास	-9591
▁नैदानिक	-9592
▁योनाथान	-9593
▁शत्रुओं	-9594
▁सलाहकार	-9595
▁अत्याचार	-9596
▁आठवड्यात	-9597
▁भविष्यवाणी	-9598
▁यरुशलेमच्या	-9599
▁राष्ट्रांच्या	-9600
पल	-9601
तला	-9602
▁69	-9603
▁ऋष	-9604
▁फट	-9605
त्ते	-9606
▁खुल	-9607
▁ताण	-9608
▁दोप	-9609
दर्शी	-9610
ाराचे	-9611
▁नयेत	-9612
▁पालक	-9613
▁गर्दी	-9614
▁ग्राह	-9615
▁ब्रॉड	-9616
▁सव्वा	-9617
णाऱ्यां	-9618
▁असायला	-9619
▁बांधली	-9620
▁वेश्या	-9621
▁उद्यमों	-9622
▁चाहूंगा	-9623
▁याबद्दल	-9624
▁हिरव्या	-9625
▁परिदृश्य	-9626
▁संदेष्टे	-9627
▁सादरीकरण	-9628
▁हस्तांतरित	-9629
▁सर्वसामान्य	-9630
▁सहकार्याबाबत	-9631
▁प्रधानमंत्रियों	-9632
बॉ	-9633
”,	-9634
▁अॅ	-9635
एसएस	-9636
ध्दी	-9637
मधले	-9638
स्टा	-9639
▁उठे	-9640
▁दीं	-9641
▁नोड	-9642
▁पडू	-9643
▁रहि	-9644
▁तंबा	-9645
▁बराम	-9646
▁अतिथि	-9647
▁कन्या	-9648
▁गतीने	-9649
▁तासात	-9650
▁बाह्य	-9651
▁राजीव	-9652
▁हत्ती	-9653
▁गंतव्य	-9654
▁दाखवून	-9655
▁निवेदन	-9656
▁बाधाओं	-9657
▁यराबाम	-9658
▁आल्याचे	-9659
▁मर्यादा	-9660
▁हल्ल्या	-9661
▁दीक्षांत	-9662
▁निर्देशक	-9663
▁प्रकारचा	-9664
▁हिजकिय्याह	-9665
ट्	-9666
ंडन	-9667
णात	-9668
नेर	-9669
साइ	-9670
सीओ	-9671
ंवार	-9672
प्ले	-9673
▁ऑटो	-9674
▁ताल	-9675
▁झाडा	-9676
▁ट्वी	-9677
▁हवेत	-9678
वरच्या	-9679
▁अड्डा	-9680
▁इंद्र	-9681
▁करदात	-9682
▁कुष्ठ	-9683
▁नियमन	-9684
▁पाठबळ	-9685
▁मिलते	-9686
▁हातून	-9687
ळ्याच्या	-9688
▁वर्षांत	-9689
▁झाल्याने	-9690
▁अनुप्रयोग	-9691
▁प्रयत्नांना	-9692
▁त्याच्याबरोबर	-9693
▁67	-9694
▁फॅ	-9695
मुखी	-9696
▁(20	-9697
▁चळव	-9698
▁बेस	-9699
मियों	-9700
स्कृत	-9701
▁राधा	-9702
▁शकले	-9703
▁हेरो	-9704
▁चक्री	-9705
▁जायला	-9706
▁पुराना	-9707
▁विश्वा	-9708
▁आयोगाचे	-9709
▁ईमानदार	-9710
▁ऑक्सीजन	-9711
▁काहीतरी	-9712
▁मंदिरों	-9713
▁मध्यस्थ	-9714
▁असल्याचा	-9715
▁होण्याचे	-9716
▁छायाचित्र	-9717
lt	-9718
-16	-9719
गडा	-9720
▁47	-9721
नशील	-9722
मंडळ	-9723
ान्त	-9724
▁सदन	-9725
त्याच	-9726
्राला	-9727
▁इंधन	-9728
▁कोने	-9729
▁तटीय	-9730
▁भाकर	-9731
▁मृदा	-9732
▁योगी	-9733
▁विधी	-9734
▁संगर	-9735
▁निराश	-9736
▁पाहतो	-9737
▁योवाश	-9738
▁समजले	-9739
▁स्वरु	-9740
▁कहेंगे	-9741
▁ब्रिटन	-9742
▁आधारावर	-9743
▁देशांचे	-9744
▁योजनेची	-9745
कन	-9746
▁w	-9747
ग्न	-9748
ज़ा	-9749
▁58	-9750
गरों	-9751
वणूक	-9752
्रीम	-9753
▁197	-9754
▁खनन	-9755
▁सदा	-9756
▁";";	-9757
▁शाळा	-9758
▁गहराई	-9759
▁भक्कम	-9760
▁मल्टी	-9761
▁इथेनॉल	-9762
▁नागपुर	-9763
▁मिद्या	-9764
▁लवकरात	-9765
मुख्याने	-9766
▁अपराधों	-9767
▁आधीच्या	-9768
▁जीवनमान	-9769
▁अधिकारों	-9770
▁व्यक्तींना	-9771
▁त्यांच्याकडे	-9772
PM	-9773
डम	-9774
नार	-9775
▁शर	-9776
दुर्	-9777
▁पवन	-9778
▁लुट	-9779
▁वसु	-9780
ग्रहण	-9781
च्‍या	-9782
▁खाया	-9783
▁दोघे	-9784
▁पदवी	-9785
▁चूर्ण	-9786
▁डूइंग	-9787
▁प्रजन	-9788
▁बुखार	-9789
काश्मीर	-9790
▁घ्यावे	-9791
▁ठरविले	-9792
▁स्मृती	-9793
▁सहाय्यक	-9794
▁दिवसातून	-9795
▁पेशेवरों	-9796
▁समाजाच्या	-9797
▁प्रस्थापित	-9798
▁कार्यकर्ताओं	-9799
▁परमेश्वरासमोर	-9800
धों	-9801
सैन	-9802
▁मस	-9803
दातर	-9804
साचा	-9805
्यूल	-9806
▁असर	-9807
▁कमर	-9808
▁जरा	-9809
▁अशाच	-9810
▁पीतल	-9811
ार्‍या	-9812
▁कामना	-9813
▁घ्याय	-9814
▁भूमिक	-9815
▁लाभों	-9816
▁दर्जेदार	-9817
▁पाण्याच्या	-9818
▁प्रामुख्याने	-9819
ab	-9820
et	-9821
फि	-9822
’,	-9823
ंजा	-9824
▁अत	-9825
जमान	-9826
ष्णु	-9827
▁बेन	-9828
▁वीस	-9829
▁सोय	-9830
कृष्ण	-9831
▁उदार	-9832
▁एकदम	-9833
▁किना	-9834
▁गांव	-9835
▁लाइव	-9836
▁बहुते	-9837
▁शिमला	-9838
▁गारंटी	-9839
▁संगरोध	-9840
▁सामोरे	-9841
▁केन्द्र	-9842
▁वारंवार	-9843
ांप्रमाणे	-9844
▁धूम्रपान	-9845
▁बँकेच्या	-9846
▁समुद्रात	-9847
▁वर्षासाठी	-9848
▁सर्वांच्या	-9849
टून	-9850
स्फ	-9851
्वल	-9852
र्वी	-9853
▁कडे	-9854
▁खते	-9855
▁पीड	-9856
▁रखो	-9857
▁सीट	-9858
▁सूज	-9859
च्छेद	-9860
▁चरबी	-9861
▁फिल्	-9862
▁मंडप	-9863
▁मधून	-9864
श्वस्त	-9865
▁आवंटन	-9866
▁इशारा	-9867
▁केलेस	-9868
▁चाँदी	-9869
वणाऱ्या	-9870
▁जुड़ाव	-9871
▁तज्ज्ञ	-9872
▁शब्बाथ	-9873
▁सुरवात	-9874
▁दर्शवली	-9875
▁संतुष्ट	-9876
▁चक्रीवाद	-9877
▁प्रगतीचा	-9878
▁राष्ट्रे	-9879
▁इस्राएलचे	-9880
▁शांतिपूर्ण	-9881
▁सिद्धांतों	-9882
▁मंत्रिमंडलीय	-9883
▁b	-9884
वील	-9885
▁ढग	-9886
▁कोक	-9887
▁कन्व	-9888
▁कमान	-9889
▁बाबत	-9890
▁बैठे	-9891
▁रिश्	-9892
▁गोल्ड	-9893
▁दोपहर	-9894
▁सर्वच	-9895
▁हेल्प	-9896
▁ह्यां	-9897
▁कारणों	-9898
▁पेट्रो	-9899
▁मेघालय	-9900
▁यूरिया	-9901
▁लाऊंगा	-9902
▁आजूबाजू	-9903
▁जबाबदार	-9904
▁पंचायती	-9905
▁ऊंचाइयों	-9906
▁परिणामों	-9907
▁वाळवंटात	-9908
▁कुटुंबांना	-9909
▁अंमलबजावणीसाठी	-9910
ैट	-9911
टीत	-9912
लाप	-9913
साम	-9914
हिर	-9915
ेटर	-9916
▁लॅ	-9917
▁हस	-9918
निटी	-9919
स्पद	-9920
▁अरा	-9921
▁काठ	-9922
▁जतन	-9923
▁बाण	-9924
वडिला	-9925
▁अराम	-9926
▁कब्र	-9927
▁पैरा	-9928
▁फोकस	-9929
▁बढ़ी	-9930
▁एवढेच	-9931
▁किताब	-9932
▁चौधरी	-9933
▁तीसरी	-9934
▁चौड़ाई	-9935
▁ज्योति	-9936
▁बाजारात	-9937
▁इब्राहीम	-9938
▁रुग्णांना	-9939
▁स्थलांतरित	-9940
▁योजनेंतर्गत	-9941
यम	-9942
ेष	-9943
▁Y	-9944
िन्	-9945
णाली	-9946
▁पशू	-9947
▁सोम	-9948
वृत्त	-9949
ाराची	-9950
▁उन्म	-9951
▁कहां	-9952
▁लेगा	-9953
▁उपभोग	-9954
▁नियमा	-9955
▁पंडित	-9956
▁प्रसू	-9957
▁रांची	-9958
▁वेगळा	-9959
▁नागपूर	-9960
▁पन्नास	-9961
▁हेक्टे	-9962
▁नामांकन	-9963
▁माहितीपट	-9964
▁गुंतवणूकी	-9965
▁त्यांच्याबरोबर	-9966
PC	-9967
क्ल	-9968
यचा	-9969
▁झे	-9970
▁उपन	-9971
▁चहा	-9972
▁फिन	-9973
▁क्रू	-9974
▁फ्रे	-9975
▁रेखा	-9976
▁उद्भव	-9977
▁गेहूं	-9978
▁नेत्र	-9979
ंत्रिकी	-9980
▁आश्वस्त	-9981
▁मीट्रिक	-9982
▁विदेशों	-9983
▁संसर्गा	-9984
▁ज्यादातर	-9985
▁परिभाषित	-9986
▁रुपयांपर्यंत	-9987
11	-9988
RD	-9989
ँक	-9990
गृ	-9991
हल	-9992
किट	-9993
जान	-9994
जीत	-9995
रिस	-9996
्टा	-9997
▁63	-9998
▁अक	-9999
▁ऑप	-10000
▁मठ	-10001
▁रज	-10002
िज्म	-10003
्लेश	-10004
▁120	-10005
▁2.5	-10006
▁नवन	-10007
▁पान	-10008
ाराचा	-10009
▁चुने	-10010
▁मन्द	-10011
▁यवाब	-10012
▁असावी	-10013
▁करुणा	-10014
▁तुकडे	-10015
▁मागास	-10016
▁तटबंदी	-10017
▁यानंतर	-10018
▁येणारे	-10019
▁विनिमय	-10020
▁ट्रेनें	-10021
▁यूनिवर्	-10022
▁ज्यावेळी	-10023
▁कारकिर्दी	-10024
▁वाढविण्यासाठी	-10025
▁सुधारण्यासाठी	-10026
ईसी	-10027
जना	-10028
टाइ	-10029
वने	-10030
▁ऑल	-10031
जिकल	-10032
पद्ध	-10033
बिंद	-10034
रखाव	-10035
▁उन्	-10036
▁गहन	-10037
▁ठंड	-10038
ब्बास	-10039
ोवताल	-10040
▁आगमन	-10041
▁नीला	-10042
▁पाता	-10043
▁फलों	-10044
▁बनला	-10045
▁येहू	-10046
▁लगते	-10047
▁वरून	-10048
▁शिल्	-10049
▁आवाजा	-10050
▁टिकाऊ	-10051
▁अग्रिम	-10052
▁पेड़ों	-10053
▁लागतील	-10054
▁डीआरडीओ	-10055
▁मोहम्मद	-10056
▁अनिश्चित	-10057
▁श्रीलंके	-10058
▁हेक्टेयर	-10059
▁माणसाच्या	-10060
▁पारदर्शकता	-10061
▁मध्यप्रदेश	-10062
▁यांच्यातल्या	-10063
21	-10064
ES	-10065
चेल	-10066
▁उघ	-10067
्विक	-10068
्हें	-10069
▁सोर	-10070
जमेंट	-10071
▁औषधा	-10072
▁गहरे	-10073
▁तर्क	-10074
▁पेशा	-10075
बिलिटी	-10076
ांवरील	-10077
▁गर्दन	-10078
▁ध्येय	-10079
▁दिलासा	-10080
▁सच्चाई	-10081
पेक्षाही	-10082
▁अरेबिया	-10083
▁पूर्तता	-10084
▁मुखर्जी	-10085
▁कायाकल्प	-10086
▁वर्षांचा	-10087
▁सरकारकडून	-10088
टाई	-10089
माम	-10090
▁54	-10091
▁59	-10092
पुरम	-10093
सवें	-10094
स्थळ	-10095
▁खाई	-10096
▁धात	-10097
▁लूट	-10098
द्वीप	-10099
वायचे	-10100
▁जुने	-10101
▁नकवी	-10102
ण्याला	-10103
▁संपदा	-10104
▁क्रमशः	-10105
▁निकायों	-10106
▁पक्षियों	-10107
▁ज्याप्रमाणे	-10108
24	-10109
HA	-10110
gt	-10111
वर्त	-10112
▁फां	-10113
ation	-10114
▁कलाम	-10115
▁कहाँ	-10116
▁लेखी	-10117
पुत्रा	-10118
▁कनाडा	-10119
▁घेतील	-10120
▁झांकी	-10121
▁तोंडा	-10122
▁निवडक	-10123
▁पोटात	-10124
▁मुद्द	-10125
▁यजमान	-10126
▁किल्ला	-10127
▁ठेवावे	-10128
▁संवादा	-10129
▁कराराचा	-10130
▁बुद्धिम	-10131
▁सामरिया	-10132
▁प्रमाणित	-10133
▁संस्थेने	-10134
▁तुझ्याकडे	-10135
▁आमच्यासाठी	-10136
▁राष्ट्राला	-10137
आया	-10138
िटर	-10139
▁57	-10140
▁नऊ	-10141
ंपार	-10142
▁गुर	-10143
व्यों	-10144
▁डीडी	-10145
▁पदों	-10146
▁मौका	-10147
▁लगाए	-10148
▁आंखों	-10149
▁जानने	-10150
▁तेथेच	-10151
▁बचाया	-10152
▁लाएगा	-10153
▁संकलन	-10154
प्रणाली	-10155
▁मन्दिर	-10156
▁मिळावे	-10157
▁साहाय्य	-10158
▁सॉफ्टवे	-10159
▁विद्यमान	-10160
▁विद्यालय	-10161
▁उपाध्यक्ष	-10162
▁प्रस्तावाला	-10163
▁जिल्ह्यांमध्ये	-10164
▁m	-10165
झील	-10166
राण	-10167
वडा	-10168
▁2.	-10169
शंकर	-10170
हनीय	-10171
ूहळू	-10172
▁डॉक	-10173
▁थोर	-10174
▁वेध	-10175
▁हर्	-10176
▁पीटर	-10177
▁लाता	-10178
▁MSMEs	-10179
▁जमाती	-10180
▁बळकटी	-10181
▁दाखवला	-10182
▁नीतिगत	-10183
▁योद्धा	-10184
▁रिकवरी	-10185
▁सदियों	-10186
▁समाजात	-10187
▁सर्विस	-10188
▁घेण्यास	-10189
▁स्वप्ने	-10190
▁नियुक्ती	-10191
▁येशूच्या	-10192
▁दृष्टिकोन	-10193
▁सुरुवातीला	-10194
▁व्यापारियों	-10195
26	-10196
em	-10197
चु	-10198
षे	-10199
कॉम	-10200
गोर	-10201
डीएस	-10202
पश्च	-10203
शिंग	-10204
स्तक	-10205
▁खंभ	-10206
▁मोट	-10207
ंपैकी	-10208
▁भागि	-10209
इंडिया	-10210
साव्या	-10211
▁उजागर	-10212
▁ट्रेड	-10213
▁धर्मा	-10214
▁लोखंड	-10215
▁अब्बास	-10216
▁लढ्यात	-10217
▁वर्षभर	-10218
▁साक्षर	-10219
▁हळूहळू	-10220
▁उल्लंघन	-10221
▁मेगावॅट	-10222
▁प्रयागराज	-10223
▁मूर्तियों	-10224
▁वेंटिलेटर	-10225
▁व्यापारिक	-10226
▁गावांमध्ये	-10227
पॅ	-10228
ईआर	-10229
बेट	-10230
ळले	-10231
चकित	-10232
▁घोड	-10233
▁तणा	-10234
च्छिक	-10235
तातील	-10236
▁अशोक	-10237
▁आरटी	-10238
▁कॉमन	-10239
▁राखी	-10240
▁किशोर	-10241
▁दरबार	-10242
▁द्वेष	-10243
▁व्हाल	-10244
▁सांगतात	-10245
▁असणार्या	-10246
▁नियमांचे	-10247
▁व्यभिचार	-10248
▁संस्थापक	-10249
▁ईशान्येकडील	-10250
▁प्रत्येकाने	-10251
गि	-10252
रज	-10253
जली	-10254
श्त	-10255
▁२५	-10256
▁जखम	-10257
▁पिय	-10258
▁कागद	-10259
▁खींच	-10260
▁दौरे	-10261
▁सवलत	-10262
▁ग्रॅम	-10263
▁पित्त	-10264
▁शुध्द	-10265
▁खोल्या	-10266
▁ब्यूरो	-10267
▁क्रमवारी	-10268
ल्ह	-10269
वीय	-10270
▁66	-10271
▁उम	-10272
क्को	-10273
ॉर्ट	-10274
▁भूख	-10275
कड़ों	-10276
स्टेट	-10277
▁जीने	-10278
▁ठरले	-10279
▁डाळी	-10280
▁नफरत	-10281
▁पद्म	-10282
▁मवेश	-10283
▁यासह	-10284
▁विना	-10285
▁सींग	-10286
मंत्रा	-10287
ऱ्यावर	-10288
▁जवाहर	-10289
▁शैतान	-10290
▁श्रेण	-10291
स्टिक्स	-10292
▁दोगुना	-10293
▁प्रथमच	-10294
▁मंत्रि	-10295
▁मणिपूर	-10296
▁सचिवों	-10297
▁इक्विटी	-10298
▁गतिविधि	-10299
▁मलेशिया	-10300
▁सिलेंडर	-10301
▁पाण्याचा	-10302
▁लोकतांत्रिक	-10303
.05	-10304
गाई	-10305
जील	-10306
र्डर	-10307
स्पे	-10308
▁इंच	-10309
▁दीव	-10310
▁लाओ	-10311
चालित	-10312
ध्याय	-10313
मच्या	-10314
ल्कुल	-10315
वर्तन	-10316
▁कहने	-10317
▁घेईल	-10318
▁जबरद	-10319
▁फिक्	-10320
नामुळे	-10321
विल्या	-10322
▁याकडे	-10323
▁लाकडा	-10324
▁शेकेल	-10325
▁आदरणीय	-10326
▁गिर्या	-10327
▁भूमीवर	-10328
▁मिश्रा	-10329
▁सुशासन	-10330
▁हेक्टर	-10331
▁अनुमोदन	-10332
▁विधियों	-10333
▁अस्तित्व	-10334
▁व्यासपीठ	-10335
▁सीएसआयआर	-10336
▁उत्पादनात	-10337
▁साक्षीदार	-10338
:-	-10339
ंसक	-10340
कर्त	-10341
क्के	-10342
ठिका	-10343
ैसूर	-10344
▁इम्	-10345
▁उदर	-10346
▁झुक	-10347
▁तिल	-10348
▁बिख	-10349
▁बिछ	-10350
▁यरी	-10351
क्सीन	-10352
शिक्ष	-10353
्रामक	-10354
▁अपरा	-10355
▁खड़ी	-10356
▁घाला	-10357
▁पध्द	-10358
▁पाळा	-10359
▁भरून	-10360
▁सुगम	-10361
▁हिला	-10362
▁उच्चा	-10363
▁दयालु	-10364
▁प्रात	-10365
▁वल्लभ	-10366
▁शिष्ट	-10367
▁चांगुल	-10368
▁नबियों	-10369
▁विनम्र	-10370
▁बिल्कुल	-10371
▁वन्यजीव	-10372
▁संवेदना	-10373
▁केंद्रीत	-10374
▁वर्षीच्या	-10375
▁प्रतिबंधित	-10376
▁राखण्यासाठी	-10377
23	-10378
कधी	-10379
नाल	-10380
पुट	-10381
ोना	-10382
ट्टा	-10383
संगत	-10384
िसिन	-10385
▁चतु	-10386
▁तभी	-10387
▁लेट	-10388
▁सिख	-10389
▁२००	-10390
▁आहेच	-10391
▁डिवी	-10392
▁बाला	-10393
▁बैठा	-10394
▁मजुर	-10395
▁मापद	-10396
▁यकृत	-10397
▁शर्त	-10398
▁सोना	-10399
ंपारिक	-10400
कडच्या	-10401
संरचना	-10402
▁इंटेल	-10403
▁उपवास	-10404
▁आधारभूत	-10405
▁इत्यादि	-10406
▁सातव्या	-10407
▁शिकायतों	-10408
▁सशक्तीकरण	-10409
45	-10410
EA	-10411
इक	-10412
ana	-10413
समु	-10414
▁५०	-10415
वतील	-10416
▁अंद	-10417
▁बाघ	-10418
▁मुर	-10419
द्यपि	-10420
सरकार	-10421
स्तेर	-10422
▁चौथे	-10423
▁डाउन	-10424
▁ताला	-10425
▁दासी	-10426
▁दिशे	-10427
▁नोडल	-10428
▁भरुन	-10429
▁संकु	-10430
कृत्ये	-10431
▁अल्सर	-10432
▁आमतौर	-10433
▁बनाकर	-10434
▁एस्तेर	-10435
▁नर्मदा	-10436
▁निकलने	-10437
▁बाप्ति	-10438
▁यूनानी	-10439
▁रखरखाव	-10440
▁रामनाथ	-10441
▁क्लस्टर	-10442
▁परिकल्प	-10443
▁मुस्लिम	-10444
▁निधनाबद्दल	-10445
▁संघटनेच्या	-10446
ेंब	-10447
▁डु	-10448
आईबी	-10449
तिहा	-10450
विदा	-10451
स्ति	-10452
▁एनि	-10453
▁कॅन	-10454
▁पडत	-10455
▁वेल	-10456
शिल्प	-10457
▁आएगी	-10458
▁आयाम	-10459
▁कैदी	-10460
▁भावन	-10461
▁रूसी	-10462
ंकय्या	-10463
ामध्ये	-10464
▁पूछता	-10465
▁असूनही	-10466
▁देणारी	-10467
▁राजकोष	-10468
▁उर्वरित	-10469
▁निराकरण	-10470
▁महिलाएं	-10471
▁करण्याला	-10472
▁केल्यावर	-10473
▁डोक्यावर	-10474
▁निवेशकों	-10475
▁माझ्याशी	-10476
▁सर्वांचा	-10477
▁मालवाहतूक	-10478
▁महत्त्वाचा	-10479
▁मिळालेल्या	-10480
▁राजकुमारों	-10481
▁परमेश्वराकडून	-10482
;&	-10483
थिल	-10484
रात	-10485
वटी	-10486
▁41	-10487
पुरा	-10488
श्मन	-10489
सीएस	-10490
▁पैन	-10491
▁मैल	-10492
▁लहर	-10493
▁चंडी	-10494
▁तुरु	-10495
▁महाल	-10496
▁लखनऊ	-10497
▁लोहे	-10498
▁शिशू	-10499
▁उर्जे	-10500
▁नवोन्	-10501
▁रखेगा	-10502
▁वडीला	-10503
▁सत्तर	-10504
▁जाएंगी	-10505
▁दुश्मन	-10506
▁विचारा	-10507
▁परेशानी	-10508
▁दिल्लीतील	-10509
▁द्राक्षारस	-10510
▁रुग्णांच्या	-10511
▁कॉन्फ्रेंसिंग	-10512
om	-10513
ुश	-10514
ताई	-10515
▁अठ	-10516
▁१६	-10517
देवी	-10518
ेंसी	-10519
▁आधा	-10520
▁खिड	-10521
▁चिं	-10522
▁ठरा	-10523
▁रुक	-10524
▁वाड	-10525
इसेंस	-10526
बोर्ड	-10527
▁अश्व	-10528
▁योशी	-10529
माध्यम	-10530
▁शोधून	-10531
▁बहुतेक	-10532
▁भाषणात	-10533
▁करोड़ों	-10534
▁प्रत्या	-10535
▁बहुतांश	-10536
▁रोमांचक	-10537
▁आतंकवादी	-10538
▁पाण्याचे	-10539
▁प्रादुर्	-10540
▁विषयांवर	-10541
▁शहराच्या	-10542
MT	-10543
नॉ	-10544
पेट	-10545
▁नु	-10546
▁फ्	-10547
▁११	-10548
▁१४	-10549
ंगात	-10550
चाही	-10551
चेरी	-10552
वारा	-10553
सबका	-10554
हेरी	-10555
▁जड़	-10556
▁ताज	-10557
क्टिव	-10558
▁इसील	-10559
▁घमंड	-10560
▁घातक	-10561
▁टीबी	-10562
▁सीआर	-10563
▁आक्रो	-10564
▁दुश्म	-10565
▁पेशाब	-10566
▁शौर्य	-10567
नावश्यक	-10568
▁प्लांट	-10569
▁यद्यपि	-10570
▁वृत्ती	-10571
▁सातवें	-10572
साठीच्या	-10573
▁आनंदाने	-10574
▁कॉलेजों	-10575
▁समुदाया	-10576
▁सर्वांग	-10577
▁रुग्णालये	-10578
▁प्रक्रियेत	-10579
ूष	-10580
३०	-10581
▁f	-10582
मला	-10583
ळवळ	-10584
ान्	-10585
ब्बी	-10586
विणे	-10587
वेतन	-10588
▁टोळ	-10589
▁रोप	-10590
▁जलसा	-10591
▁देरी	-10592
▁माने	-10593
▁योआब	-10594
▁लगने	-10595
▁हिवा	-10596
▁घातला	-10597
▁डालते	-10598
▁निर्ज	-10599
▁बेथेल	-10600
▁मौल्य	-10601
▁सांभा	-10602
▁स्पेस	-10603
▁प्रजनन	-10604
विलेल्या	-10605
ेप्रमाणे	-10606
▁आल्यावर	-10607
▁शरीराला	-10608
▁शिक्षित	-10609
▁शिफारशी	-10610
▁अस्तित्वात	-10611
▁प्रजासत्ताक	-10612
ीत	-10613
ंगल	-10614
गंज	-10615
सेज	-10616
▁बीत	-10617
आयामी	-10618
▁अदोम	-10619
▁क्लब	-10620
▁घडून	-10621
▁डरते	-10622
▁वाटप	-10623
गाच्या	-10624
▁कनानी	-10625
▁घातले	-10626
▁भाषेत	-10627
▁लावला	-10628
▁सौंदर	-10629
▁वेदीवर	-10630
▁क्रिकेट	-10631
▁मेंढपाळ	-10632
▁शहरातील	-10633
▁सेवानिवृ	-10634
22	-10635
नं	-10636
ौती	-10637
▁73	-10638
▁दम	-10639
▁वक	-10640
दक्ष	-10641
शियन	-10642
▁चैं	-10643
▁टोल	-10644
▁ढाल	-10645
सोबतच	-10646
ोलिया	-10647
▁अनुप	-10648
▁खोला	-10649
▁गड़ब	-10650
▁पाहु	-10651
▁रुचि	-10652
▁सूचक	-10653
▁अडथळे	-10654
▁आवडते	-10655
▁कानों	-10656
▁खोलने	-10657
▁विहार	-10658
▁साधने	-10659
▁मापदंड	-10660
▁व्यस्त	-10661
▁शिल्लक	-10662
▁दीवारों	-10663
▁लाइसेंस	-10664
▁पारंपारिक	-10665
▁प्रत्येकी	-10666
ईएम	-10667
फ्र	-10668
मास	-10669
नाशक	-10670
पैथी	-10671
रीया	-10672
वाडी	-10673
सचिव	-10674
▁आशे	-10675
▁घाव	-10676
▁छाप	-10677
▁फेर	-10678
प्रथम	-10679
ित्रा	-10680
▁उपरो	-10681
▁सद्य	-10682
कुमारी	-10683
संशोधन	-10684
सीएमआर	-10685
▁गलिया	-10686
▁माउंट	-10687
▁वेगळी	-10688
▁इसीलिए	-10689
▁दानीएल	-10690
▁दिवसां	-10691
▁यहोशवा	-10692
▁अफ्रीकी	-10693
▁काळातील	-10694
▁तेव्हाच	-10695
▁लोकसभेत	-10696
▁इन्स्टिट	-10697
▁घेण्याचा	-10698
▁मौल्यवान	-10699
▁सेवेसाठी	-10700
▁बिन्यामीन	-10701
▁पृथ्वीवरील	-10702
त्स	-10703
िंट	-10704
ज्जा	-10705
म्मत	-10706
ेंडा	-10707
▁अवै	-10708
▁पश्	-10709
▁सूट	-10710
फार्म	-10711
▁उकसा	-10712
▁ग्रे	-10713
▁जनगण	-10714
▁बल्ब	-10715
▁म्यू	-10716
▁याता	-10717
बाबतीत	-10718
ांसमोर	-10719
▁कितनी	-10720
▁राहणे	-10721
▁विशाख	-10722
▁उपाहार	-10723
▁कृतज्ञ	-10724
▁जाणारे	-10725
▁देणारा	-10726
▁पाहिला	-10727
▁भांडवल	-10728
▁विभाजन	-10729
▁अनुपालन	-10730
▁उपरोक्त	-10731
▁जलाशयों	-10732
▁प्रचलित	-10733
▁संकल्पने	-10734
▁आव्हानांचा	-10735
▁प्रकल्पांचा	-10736
▁99	-10737
ंदगी	-10738
▁आंग	-10739
▁भीम	-10740
▁लंग	-10741
▁आचरण	-10742
▁उधार	-10743
▁दारा	-10744
▁बिगर	-10745
▁रिका	-10746
▁रुंद	-10747
▁बरामद	-10748
▁बांबू	-10749
▁यातील	-10750
▁लावली	-10751
▁स्नेह	-10752
▁गार्डन	-10753
▁दिनांक	-10754
▁संकटात	-10755
▁संसदेत	-10756
▁सिन्हा	-10757
▁संख्येत	-10758
▁प्रलंबित	-10759
▁प्रयत्नशील	-10760
रस	-10761
रीश	-10762
इट्स	-10763
जाति	-10764
म्बे	-10765
सीना	-10766
▁छोर	-10767
▁रोल	-10768
▁वाइ	-10769
मुंबई	-10770
▁बपति	-10771
▁मोहन	-10772
▁सोचा	-10773
▁अदालत	-10774
▁दिव्य	-10775
▁धक्का	-10776
▁बाशान	-10777
▁बिंदु	-10778
▁अर्पणे	-10779
▁अवार्ड	-10780
▁आक्रोश	-10781
▁निघाले	-10782
▁बिहारी	-10783
▁लष्करी	-10784
▁सहजपणे	-10785
▁सहयोगी	-10786
▁सुरळीत	-10787
▁स्तरों	-10788
▁महामंडळ	-10789
▁यातायात	-10790
▁यहोशाफाट	-10791
▁विकसनशील	-10792
▁हड्डियों	-10793
▁प्रक्रिये	-10794
▁त्याच्याशी	-10795
▁भारतातल्या	-10796
▁अर्थसंकल्पात	-10797
NC	-10798
कोळ	-10799
खीम	-10800
नास	-10801
बाग	-10802
पाणी	-10803
विया	-10804
ातला	-10805
▁आसन	-10806
▁ओसा	-10807
▁गाज	-10808
▁पदा	-10809
▁पडता	-10810
▁लिखे	-10811
▁सीधा	-10812
▁सेतु	-10813
▁स्की	-10814
व्व्या	-10815
▁अजनबी	-10816
▁आश्रम	-10817
▁ओलांड	-10818
▁काटेक	-10819
▁चारही	-10820
▁बकाया	-10821
▁भंडार	-10822
▁मरम्मत	-10823
▁सुध्दा	-10824
्यापासून	-10825
▁विशाखाप	-10826
▁ह्यांना	-10827
▁अवसंरचना	-10828
▁तोपर्यंत	-10829
▁संपर्कात	-10830
▁बाप्तिस्मा	-10831
▁वैशिष्ट्ये	-10832
▁प्रतिस्पर्धी	-10833
बले	-10834
बुल	-10835
वडी	-10836
तारा	-10837
वावी	-10838
▁बुल	-10839
▁मेह	-10840
▁रवी	-10841
▁लॉक	-10842
▁वाय	-10843
▁हाट	-10844
ऊर्जा	-10845
▁अवैध	-10846
▁कॉफी	-10847
▁कॉरप	-10848
▁चाला	-10849
▁ब्ले	-10850
▁अडथळा	-10851
▁कैडेट	-10852
▁क्रॉस	-10853
▁डिजिट	-10854
▁मारुन	-10855
ड़कियों	-10856
▁योजनेत	-10857
▁गर्भाशय	-10858
▁सेंट्रल	-10859
▁घेण्याचे	-10860
▁दर्शनमंड	-10861
▁मानदंडों	-10862
▁दर्जाच्या	-10863
▁प्रकल्पाच्या	-10864
-6	-10865
Mo	-10866
le	-10867
ईएस	-10868
एआर	-10869
चाप	-10870
डले	-10871
ढाई	-10872
नेही	-10873
पीआर	-10874
मेरे	-10875
र्या	-10876
विंग	-10877
सर्व	-10878
▁कहे	-10879
▁घुस	-10880
▁ठाक	-10881
▁तारण	-10882
▁हाथी	-10883
स्वामी	-10884
▁तत्वा	-10885
▁स्ट्र	-10886
▁हामान	-10887
▁ह्याची	-10888
▁उमेदवार	-10889
▁गणतंत्र	-10890
▁विशेषकर	-10891
▁दौऱ्यावर	-10892
▁मेलेल्या	-10893
▁श्रेणियों	-10894
▁संस्थांनी	-10895
▁प्रावधानों	-10896
▁राजमार्गों	-10897
▁अभियांत्रिकी	-10898
▁अर्थव्यवस्थाओं	-10899
ya	-10900
ईस	-10901
पंच	-10902
▁जौ	-10903
▁रव	-10904
ातले	-10905
▁अजी	-10906
▁जसा	-10907
▁देण	-10908
▁रसद	-10909
▁सुष	-10910
▁हाड	-10911
▁उतना	-10912
▁तिथि	-10913
▁देखे	-10914
▁पडून	-10915
▁भेजे	-10916
▁नवजात	-10917
▁पड़ने	-10918
▁लेफ्ट	-10919
▁शिथिल	-10920
▁सॅनिट	-10921
▁दरवाजा	-10922
▁फैलाने	-10923
▁राजकार	-10924
्यांपैकी	-10925
▁अवधारणा	-10926
▁क्षयरोग	-10927
▁संस्कार	-10928
▁स्थापने	-10929
▁दुश्मनों	-10930
▁नुकत्याच	-10931
▁कराराच्या	-10932
▁विश्रांती	-10933
▁कामगारांना	-10934
.00	-10935
.03	-10936
नेल	-10937
र्र	-10938
िरे	-10939
ंहून	-10940
िबात	-10941
▁खपत	-10942
▁गहू	-10943
▁चलन	-10944
▁मीठ	-10945
▁5000	-10946
▁इकडे	-10947
▁पांड	-10948
▁फाटक	-10949
▁मोड़	-10950
▁वीणा	-10951
▁सुदृ	-10952
ंपासून	-10953
▁जीतने	-10954
▁ह्याच	-10955
▁अलिकडे	-10956
▁दुर्गा	-10957
▁निपटान	-10958
▁मृतकों	-10959
▁टेलीफोन	-10960
▁बौद्धिक	-10961
▁योजनेला	-10962
▁स्वीकृत	-10963
▁निवडणुकी	-10964
▁व्यवसायों	-10965
▁सर्वप्रथम	-10966
▁होईपर्यंत	-10967
▁उच्चस्तरीय	-10968
▁कुटुंबातील	-10969
▁जीवनसत्त्व	-10970
तोस	-10971
▁68	-10972
▁अंश	-10973
▁ठळक	-10974
▁सेन	-10975
▁हरि	-10976
कोविड	-10977
बत्ती	-10978
▁2011	-10979
▁नम्र	-10980
▁पोटा	-10981
▁मालक	-10982
▁स्पी	-10983
डीआरएफ	-10984
ऱ्याने	-10985
▁बोललो	-10986
▁मंडली	-10987
▁स्तूप	-10988
▁हवेली	-10989
▁अखंडता	-10990
▁आढळतात	-10991
▁ट्विटर	-10992
▁पुरेसे	-10993
▁अस्वस्थ	-10994
▁मेगावाट	-10995
▁वैक्सीन	-10996
▁पडलेल्या	-10997
▁झाल्याबद्दल	-10998
▁देशभरातल्या	-10999
▁प्रदेशातल्या	-11000
29	-11001
दक	-11002
ॅन	-11003
ेंच	-11004
णायक	-11005
न्सी	-11006
▁शोर	-11007
▁सतह	-11008
नादेश	-11009
▁हानी	-11010
▁उपनगर	-11011
▁चालले	-11012
▁सारखे	-11013
▁स्टेड	-11014
▁घनिष्ठ	-11015
▁जनतेचे	-11016
▁बैठकों	-11017
▁इंटेलिज	-11018
▁पोहोचली	-11019
▁रक्तदाब	-11020
▁शैक्षिक	-11021
▁सुधारणे	-11022
▁दावीदाला	-11023
▁उद्यमशीलता	-11024
▁कार्यकर्ता	-11025
▁निर्देशांक	-11026
ol	-11027
वं	-11028
गती	-11029
वेन	-11030
संघ	-11031
माची	-11032
लैंड	-11033
▁गड्	-11034
▁जां	-11035
▁पिढ	-11036
▁बेर	-11037
▁मते	-11038
ॉप्टर	-11039
▁आरंभ	-11040
▁इसरो	-11041
▁गुर्	-11042
▁ठहरा	-11043
दृष्टी	-11044
▁डिस्ट	-11045
▁पेरिस	-11046
▁बेंगल	-11047
▁भुवने	-11048
▁रूपात	-11049
▁साढ़े	-11050
ापूर्वी	-11051
▁जणांना	-11052
▁अन्नधान	-11053
▁दर्शकों	-11054
▁योजनेचे	-11055
▁रुपांतर	-11056
▁सरकारें	-11057
▁कामासाठी	-11058
▁कठिनाइयों	-11059
▁तैयारियों	-11060
▁सुविधांचा	-11061
▁अन्यजातियों	-11062
▁माझ्याबरोबर	-11063
सुर	-11064
नाया	-11065
वावा	-11066
हाचे	-11067
▁कंब	-11068
▁दाब	-11069
▁फेड	-11070
वणारे	-11071
▁किला	-11072
▁जटिल	-11073
▁टीवी	-11074
▁बुरे	-11075
▁मीखा	-11076
▁लगाई	-11077
▁वकील	-11078
▁विफल	-11079
▁संयम	-11080
▁सीजन	-11081
▁आराखड	-11082
▁आश्रय	-11083
▁इश्मा	-11084
▁राजाचा	-11085
▁हाताने	-11086
▁तिथल्या	-11087
▁फिल्में	-11088
▁म्हणतील	-11089
▁योजनाएं	-11090
ण्यासारखे	-11091
▁बपतिस्मा	-11092
▁मंदिराचे	-11093
▁राजकोषीय	-11094
▁प्रोग्राम	-11095
▁संयुक्तपणे	-11096
▁सार्वभौमिक	-11097
▁जप	-11098
▁मळ	-11099
▁यर	-11100
ग्या	-11101
▁रेश	-11102
▁वाव	-11103
▁आवंट	-11104
▁इराण	-11105
▁कळले	-11106
▁कॉम्	-11107
▁खांब	-11108
▁चलना	-11109
▁पैदल	-11110
▁बद्ध	-11111
▁रैंक	-11112
▁स्वे	-11113
करणाचे	-11114
▁ऑक्सि	-11115
▁ट्वीट	-11116
▁महोदय	-11117
▁उत्पन्	-11118
▁डिवीजन	-11119
▁सांत्व	-11120
▁चिंताओं	-11121
▁टीकाकरण	-11122
▁स्वर्गा	-11123
▁अब्राहाम	-11124
▁कायदेशीर	-11125
▁निर्णायक	-11126
▁नियमितपणे	-11127
▁योजनेमुळे	-11128
▁प्रतिबंधात्मक	-11129
▁कार्यक्रमाच्या	-11130
47	-11131
मोन	-11132
म्य	-11133
शाह	-11134
ैया	-11135
▁77	-11136
▁अ‍	-11137
▁रक	-11138
▁सल	-11139
वर्ग	-11140
▁उठो	-11141
▁तिन	-11142
▁फीट	-11143
▁बिग	-11144
▁सेक	-11145
▁१००	-11146
▁अंगा	-11147
▁गुरू	-11148
▁तिमा	-11149
▁सूरत	-11150
प्रकाश	-11151
▁उपस्थ	-11152
▁एकमेव	-11153
▁कापणी	-11154
▁बिल्ड	-11155
त्कालीन	-11156
▁उत्तरी	-11157
▁करेंगी	-11158
▁पासवान	-11159
▁संबद्ध	-11160
▁सर्जरी	-11161
▁देखेंगे	-11162
▁नियोजित	-11163
▁पर्वतार	-11164
▁मेंढ्या	-11165
▁वेगळ्या	-11166
▁सैकड़ों	-11167
▁नवाचारों	-11168
▁पाण्याची	-11169
▁प्रांतात	-11170
▁मिसरच्या	-11171
▁लाखांहून	-11172
▁सीएसआईआर	-11173
▁आमच्याकडे	-11174
▁इंडस्ट्री	-11175
▁मनुष्याला	-11176
▁सक्षमीकरण	-11177
▁अर्थमंत्री	-11178
▁घराण्यातील	-11179
▁जिल्ह्यातील	-11180
▁प्रयत्नांची	-11181
▁महाराष्ट्रात	-11182
एआई	-11183
कीत	-11184
म्ह	-11185
▁एथ	-11186
ndia	-11187
लीला	-11188
▁आका	-11189
▁घाय	-11190
▁जरु	-11191
▁बगी	-11192
▁बला	-11193
▁मैन	-11194
राधना	-11195
ानाचा	-11196
▁आयटी	-11197
▁ऊपरी	-11198
▁नसून	-11199
▁बुरी	-11200
र्निंग	-11201
▁अद्या	-11202
▁उज्जी	-11203
▁एलीया	-11204
▁नक्वी	-11205
▁फ्रेम	-11206
▁वाढला	-11207
णामध्ये	-11208
▁एमएसपी	-11209
▁कामाला	-11210
▁निश्चय	-11211
▁पहुंचे	-11212
▁माताओं	-11213
▁गर्भनिर	-11214
▁दक्षिणी	-11215
▁रक्तदान	-11216
▁स्थितीत	-11217
▁कारीगरों	-11218
▁स्थानावर	-11219
▁उद्दिष्टे	-11220
▁चांगुलपणा	-11221
▁मंदिरातील	-11222
▁व्यंकय्या	-11223
▁स्तरावरील	-11224
▁आश्चर्यचकित	-11225
▁टक्क्यांपर्यंत	-11226
यो	-11227
तोल	-11228
बिर	-11229
हेज	-11230
▁नल	-11231
जनों	-11232
डीबी	-11233
म्बर	-11234
▁175	-11235
▁अंज	-11236
▁ऑयल	-11237
ईलैंड	-11238
नियों	-11239
ोरिया	-11240
▁अकाल	-11241
▁एकड़	-11242
▁घडेल	-11243
▁टाइम	-11244
▁पॉलि	-11245
▁फेसब	-11246
▁फ्री	-11247
▁ब्रे	-11248
▁भावी	-11249
▁समजू	-11250
▁टीमों	-11251
▁भ्रमण	-11252
▁वस्ती	-11253
▁50,000	-11254
▁पुरेसा	-11255
▁सुलभता	-11256
▁अनुभवों	-11257
▁महिलाएँ	-11258
▁वास्तुक	-11259
▁जगातल्या	-11260
▁विजेताओं	-11261
ण्यापूर्वी	-11262
▁इस्राएलला	-11263
▁काळापासून	-11264
▁बंदरगाहों	-11265
▁त्यापेक्षा	-11266
▁दिवसांच्या	-11267
दह	-11268
एमए	-11269
माचे	-11270
रीशस	-11271
रेपी	-11272
ित्य	-11273
▁इथं	-11274
▁कवच	-11275
▁गमा	-11276
ंकडून	-11277
धानिक	-11278
नियां	-11279
वलेले	-11280
▁Prad	-11281
▁इंजे	-11282
▁एसाव	-11283
▁जादू	-11284
▁थायल	-11285
▁धनुष	-11286
▁पडतो	-11287
▁पायी	-11288
▁यावी	-11289
▁रॉयल	-11290
▁2016,	-11291
▁तिकिट	-11292
▁पड़ोस	-11293
▁वधस्त	-11294
▁वाढून	-11295
▁श्रेय	-11296
▁अजिबात	-11297
▁आयएनएस	-11298
▁इच्छुक	-11299
▁गिरावट	-11300
▁जाताना	-11301
▁डाव्या	-11302
▁दाँतों	-11303
▁उन्मूलन	-11304
▁दिवसांत	-11305
▁बोलावले	-11306
▁सराहनीय	-11307
▁हाइड्रो	-11308
▁निष्पक्ष	-11309
▁विकासाचा	-11310
▁कल्याणकारी	-11311
▁मैत्रीपूर्ण	-11312
अब	-11313
झी	-11314
उत्	-11315
मिर	-11316
लीक	-11317
सिस	-11318
▁3.	-11319
▁कड	-11320
▁जड	-11321
आयएस	-11322
ताने	-11323
▁थां	-11324
▁लेब	-11325
India	-11326
ेंट्स	-11327
▁कडून	-11328
▁कर्ण	-11329
▁गुला	-11330
▁तुकड	-11331
▁पाडा	-11332
▁शंकर	-11333
▁शिका	-11334
▁शेयर	-11335
▁इतिहा	-11336
▁खाँसी	-11337
▁निकले	-11338
▁बारीक	-11339
▁म्हणे	-11340
▁लष्कर	-11341
▁वाढले	-11342
▁आराधना	-11343
▁तेंव्हा	-11344
▁देशवासी	-11345
▁निकालने	-11346
▁आपातकालीन	-11347
▁वाढवण्यात	-11348
▁देवाणघेवाण	-11349
▁पूर्वजांना	-11350
▁उत्तरप्रदेश	-11351
EC	-11352
नम	-11353
ॅक	-11354
▁n	-11355
बेर	-11356
लीत	-11357
▁ईज	-11358
▁गज	-11359
ंकडे	-11360
▁800	-11361
▁अवय	-11362
▁कडक	-11363
▁फरक	-11364
▁फर्	-11365
▁भोज	-11366
▁शंक	-11367
▁शिज	-11368
▁हेर	-11369
निटाइ	-11370
▁ईर्ष	-11371
▁एनटी	-11372
▁रसाय	-11373
▁साँस	-11374
▁हमले	-11375
▁फॉर्म	-11376
▁मिजोर	-11377
▁यूरोप	-11378
▁रहेगी	-11379
▁समजेल	-11380
▁साहसी	-11381
▁आवंटित	-11382
▁उन्नयन	-11383
▁मिळावा	-11384
▁स्वरुप	-11385
▁काटेकोर	-11386
▁सावधानी	-11387
▁उपाध्याय	-11388
▁गरीबांना	-11389
▁परंपराओं	-11390
▁यहोयाकीम	-11391
▁सैन्याने	-11392
▁इस्त्राएल	-11393
▁कार्यवाही	-11394
▁भुवनेश्वर	-11395
▁याप्रसंगी	-11396
▁दावीदाच्या	-11397
▁यांसारख्या	-11398
▁संस्थात्मक	-11399
▁खालीलप्रमाणे	-11400
▁त्याच्यासाठी	-11401
ड़न	-11402
ूती	-11403
▁सज	-11404
कर्म	-11405
▁अतः	-11406
▁आति	-11407
▁नवर	-11408
तांचा	-11409
▁एवढी	-11410
▁काढा	-11411
▁क्रा	-11412
▁डाऊन	-11413
▁दाँत	-11414
▁पायल	-11415
▁आनन्द	-11416
▁तीनों	-11417
▁नद्या	-11418
▁विलाप	-11419
▁साहेब	-11420
▁किरकोळ	-11421
▁कीटाणु	-11422
▁डोळ्या	-11423
▁नाहीतर	-11424
▁राजाची	-11425
▁आदमियों	-11426
▁पर्यायी	-11427
▁फायद्या	-11428
ण्यापासून	-11429
▁निर्णयों	-11430
▁संभावनाओं	-11431
▁स्वयंसेवक	-11432
▁योजनांच्या	-11433
AC	-11434
्प	-11435
...	-11436
होन	-11437
ताची	-11438
पीटी	-11439
फेसर	-11440
व्यव	-11441
▁एकर	-11442
▁कात	-11443
▁यमु	-11444
▁हनु	-11445
कार्य	-11446
भागीय	-11447
रोबाम	-11448
विध्य	-11449
▁कुशी	-11450
▁नग्न	-11451
▁नमुन	-11452
▁फैले	-11453
्वेस्ट	-11454
▁जयपुर	-11455
▁तिसरा	-11456
▁नॉर्थ	-11457
▁भिन्न	-11458
▁लवचिक	-11459
▁उच्चतम	-11460
▁दृढ़ता	-11461
▁बोलतात	-11462
▁भ्रष्ट	-11463
▁मार्शल	-11464
▁प्रेषित	-11465
▁सुक्ष्म	-11466
▁सुझावों	-11467
▁वातावरणात	-11468
▁त्यांच्यात	-11469
▁विश्वासघात	-11470
▁He	-11471
▁पश	-11472
सीआई	-11473
▁घटन	-11474
ंगाने	-11475
चाताप	-11476
▁इंडि	-11477
▁नगरा	-11478
▁बिगा	-11479
▁शेजा	-11480
▁करशील	-11481
▁कोर्स	-11482
▁चाळीस	-11483
▁नौकरी	-11484
▁पाहात	-11485
▁साइंस	-11486
व्यवस्थ	-11487
▁खुल्या	-11488
▁मिजोरम	-11489
▁म्हणता	-11490
▁रेड्डी	-11491
▁शिफारस	-11492
▁वक्तव्य	-11493
▁स्पोर्ट	-11494
▁होणार्या	-11495
▁देशामध्ये	-11496
▁वित्तपोषण	-11497
▁खाद्यपदार्थ	-11498
▁राज्यातल्या	-11499
PF	-11500
छो	-11501
जळ	-11502
टू	-11503
आणि	-11504
डीन	-11505
तिन	-11506
षधी	-11507
▁CB	-11508
नेंस	-11509
ुक्त	-11510
▁700	-11511
▁छान	-11512
▁छिप	-11513
▁छीन	-11514
▁धाड	-11515
▁पिघ	-11516
▁बुक	-11517
शुल्क	-11518
िकारक	-11519
▁ईरान	-11520
▁एसटी	-11521
▁चैनल	-11522
▁जवळच	-11523
▁थेंब	-11524
▁यकीन	-11525
▁होवू	-11526
नेस्को	-11527
▁खेतों	-11528
▁ढाँचे	-11529
▁बर्फा	-11530
▁मेंदू	-11531
▁रेडिओ	-11532
▁अंधकार	-11533
▁अध्याय	-11534
▁परंपरे	-11535
▁प्रिंट	-11536
▁बढ़ाना	-11537
▁वातावर	-11538
▁टिप्पणी	-11539
▁द्यायचे	-11540
▁समावेशन	-11541
▁सिफारिशों	-11542
▁प्लेटफार्म	-11543
▁उद्योजकांना	-11544
▁प्रयत्नांमुळे	-11545
he	-11546
कं	-11547
ॉय	-11548
एचए	-11549
सां	-11550
ेकर	-11551
क्टी	-11552
लेशन	-11553
▁मसु	-11554
्यवधी	-11555
▁अभिय	-11556
▁आतील	-11557
▁बलाम	-11558
▁बांस	-11559
ूंच्या	-11560
▁गिबोन	-11561
▁दायरे	-11562
▁पाहणी	-11563
▁बढ़ना	-11564
▁बनवून	-11565
त्तियों	-11566
▁अंदमान	-11567
▁निराशा	-11568
▁फिक्की	-11569
▁फेसबुक	-11570
▁मूत्रा	-11571
▁शिपिंग	-11572
▁सहभागा	-11573
▁सीतारा	-11574
कांपासून	-11575
▁स्वच्छा	-11576
▁कोट्यवधी	-11577
▁दिनाच्या	-11578
▁निश्चितच	-11579
▁लॉजिस्टिक	-11580
▁समुद्रकिन	-11581
▁सहकार्याला	-11582
▁लोकांपर्यंत	-11583
▁मिळवण्यासाठी	-11584
27	-11585
खू	-11586
दून	-11587
शाचा	-11588
ियोप	-11589
▁टाइ	-11590
▁डाग	-11591
▁नीट	-11592
्वारे	-11593
▁1.25	-11594
▁1500	-11595
▁गणेश	-11596
▁ग्या	-11597
▁जिवे	-11598
▁जुना	-11599
▁मजूर	-11600
▁योसे	-11601
▁आच्छा	-11602
▁चलाने	-11603
▁तरलता	-11604
▁वाटून	-11605
▁विवाह	-11606
नेजमेंट	-11607
▁अद्याप	-11608
▁अपनाया	-11609
▁अभिव्य	-11610
▁इन्हें	-11611
▁ईपीएफओ	-11612
▁प्रशंस	-11613
▁महासंघ	-11614
▁वाढवून	-11615
▁सभागृह	-11616
▁स्वभाव	-11617
▁कारागिर	-11618
▁बहुतायत	-11619
▁राजनीति	-11620
▁सव्वाशे	-11621
▁केदारनाथ	-11622
▁प्रोफेसर	-11623
▁आपत्कालीन	-11624
▁वैशिष्ट्य	-11625
▁समितीच्या	-11626
▁विशेषज्ञता	-11627
▁भविष्यासाठी	-11628
▁संवेदनशीलता	-11629
▁प्रकल्पांच्या	-11630
बाह	-11631
वाज	-11632
एफएफ	-11633
गंगा	-11634
देखो	-11635
वकों	-11636
सीएफ	-11637
्रोन	-11638
▁कटी	-11639
▁झलक	-11640
▁मुळ	-11641
▁विण	-11642
▁ICMR	-11643
▁अगली	-11644
▁ओसाड	-11645
▁वल्ह	-11646
▁शादी	-11647
▁सुल्	-11648
ंबद्दल	-11649
केंद्र	-11650
▁इनकार	-11651
▁खायला	-11652
▁चक्कर	-11653
▁डॉक्ट	-11654
▁तृतीय	-11655
▁विस्म	-11656
▁साजरी	-11657
▁सुचार	-11658
▁स्राव	-11659
▁स्वर्	-11660
प्राप्त	-11661
▁अमृतसर	-11662
▁पंक्ति	-11663
▁सूर्या	-11664
▁हिज्की	-11665
▁अर्थसंक	-11666
▁आवाजाही	-11667
▁प्रोटीन	-11668
▁बाजूंनी	-11669
▁लाभकारी	-11670
▁वैविध्य	-11671
▁बहुआयामी	-11672
▁भागिदारी	-11673
▁स्टेडियम	-11674
▁संकटाच्या	-11675
थो	-11676
▁तथ	-11677
वरही	-11678
शियम	-11679
साचे	-11680
▁आणू	-11681
▁गोड	-11682
▁निग	-11683
▁रिफ	-11684
▁हाक	-11685
harat	-11686
िक्षा	-11687
▁अल्ट	-11688
▁खेलो	-11689
▁पणजी	-11690
▁फारच	-11691
▁लिये	-11692
▁सुकर	-11693
कश्मीर	-11694
▁परिचय	-11695
▁चढ़ाया	-11696
▁डीएसटी	-11697
▁पुनर्र	-11698
▁कार्यात	-11699
▁जवळच्या	-11700
▁स्थैर्य	-11701
▁आमच्यावर	-11702
▁पश्चाताप	-11703
▁संस्थेचे	-11704
▁चित्रपटात	-11705
▁स्वतःच्या	-11706
▁कार्यालयों	-11707
▁प्रकल्पाचे	-11708
▁पहिल्यांदाच	-11709
▁लॉकडाऊनच्या	-11710
▁प्रयोगशालाएँ	-11711
eM	-11712
अम	-11713
निय	-11714
ब्स	-11715
वाढ	-11716
श्क	-11717
सुख	-11718
▁मश	-11719
न्क्	-11720
▁कैल	-11721
▁पहच	-11722
▁पैग	-11723
प्लिक	-11724
ल्‍या	-11725
▁एनएफ	-11726
▁गणना	-11727
▁गुदा	-11728
▁माते	-11729
▁तुरही	-11730
▁हॉटेल	-11731
▁एजेंडा	-11732
▁शासकीय	-11733
▁ईर्ष्या	-11734
▁जेंव्हा	-11735
▁टुकड़ों	-11736
▁भेटायला	-11737
वण्याच्या	-11738
▁अनुमोदित	-11739
▁करदाताओं	-11740
▁तालाबंदी	-11741
▁सर्वांगीण	-11742
▁मानवपुत्रा	-11743
▁गेल्यावर्षी	-11744
▁मनुष्याच्या	-11745
▁यूनिवर्सिटी	-11746
85	-11747
st	-11748
iii	-11749
निस	-11750
पेश	-11751
यरल	-11752
▁ऑड	-11753
गेशन	-11754
जोशी	-11755
▁झेप	-11756
▁तटर	-11757
▁बाप	-11758
केमिक	-11759
यांची	-11760
▁कोटा	-11761
▁चिड़	-11762
▁जैसल	-11763
▁नबूक	-11764
▁भरने	-11765
▁यशया	-11766
▁युनि	-11767
▁यूके	-11768
▁विनो	-11769
▁सेतू	-11770
जीएसटी	-11771
▁Covid	-11772
▁आठवणी	-11773
▁काढला	-11774
▁चळवळी	-11775
▁चार्ट	-11776
▁जाहिर	-11777
▁जितके	-11778
▁धोरणे	-11779
▁पक्षा	-11780
▁पडतात	-11781
▁पशुधन	-11782
▁बैठका	-11783
▁मजबूर	-11784
लयाच्या	-11785
▁पाएंगे	-11786
▁पूछताछ	-11787
▁मॉरीशस	-11788
▁वितरीत	-11789
▁साम्रा	-11790
▁इस्रायल	-11791
▁चक्रवात	-11792
▁तटरक्षक	-11793
▁महाराजा	-11794
▁संदेशात	-11795
▁संरक्षक	-11796
▁अधिग्रहण	-11797
▁तुम्हांस	-11798
▁दीर्घकाळ	-11799
▁पुस्तकात	-11800
▁विषाणूचा	-11801
▁प्रतिष्ठा	-11802
▁ख्रिस्ताच्या	-11803
▁संस्थांमध्ये	-11804
31	-11805
बॉल	-11806
मोल	-11807
▁76	-11808
केयर	-11809
लमेल	-11810
▁नसा	-11811
▁पाण	-11812
▁अर्क	-11813
▁एड्स	-11814
▁क्रे	-11815
▁डिली	-11816
▁थर्म	-11817
▁दिनी	-11818
▁देशी	-11819
▁पडते	-11820
▁बनता	-11821
▁लिला	-11822
▁सेला	-11823
कासाठी	-11824
▁तितके	-11825
▁दिलों	-11826
▁बायका	-11827
▁माइया	-11828
▁मागित	-11829
▁सेवेत	-11830
▁तालमेल	-11831
▁संहिता	-11832
▁अभिनेता	-11833
▁उत्तरात	-11834
▁निर्बंध	-11835
▁पुनर्जी	-11836
▁विक्रमी	-11837
▁गर्मजोशी	-11838
▁स्वरुपात	-11839
▁आरोग्यसेवा	-11840
▁खिलाड़ियों	-11841
▁मुख्यमंत्र	-11842
▁यरुशलेममधील	-11843
NA	-11844
कूड	-11845
नाय	-11846
संध	-11847
हेम	-11848
डीजी	-11849
ताचे	-11850
▁कीम	-11851
▁चेत	-11852
▁दमा	-11853
▁रिझ	-11854
ंद्रह	-11855
टानगर	-11856
▁2012	-11857
▁आणला	-11858
▁ऐकली	-11859
▁कपूर	-11860
▁करों	-11861
▁खाणी	-11862
▁खाणे	-11863
▁जगन्	-11864
▁पाते	-11865
▁फिलि	-11866
▁वर्क	-11867
▁शेकड	-11868
▁होवो	-11869
▁खेळाड	-11870
▁जागरु	-11871
▁सिंधु	-11872
▁सुंता	-11873
ौपचारिक	-11874
▁घरातील	-11875
▁जागृती	-11876
▁युरिया	-11877
▁व्यापा	-11878
▁सूचकांक	-11879
▁मिसरमध्ये	-11880
▁स्वीकारला	-11881
▁टक्क्यांनी	-11882
▁पर्यावरणीय	-11883
▁पुरस्कारों	-11884
▁भारतीयांना	-11885
▁लोकांबरोबर	-11886
▁प्राथमिकताओं	-11887
SC	-11888
चौ	-11889
फळ	-11890
ळत	-11891
ईपी	-11892
लाइ	-11893
समय	-11894
▁दै	-11895
▁रऊ	-11896
▁इंध	-11897
▁उखा	-11898
▁उभी	-11899
▁कच्	-11900
▁गधे	-11901
▁रूम	-11902
खेरीज	-11903
ित्ती	-11904
▁2024	-11905
▁खाती	-11906
▁बनते	-11907
▁रोया	-11908
▁वेळो	-11909
▁नमुने	-11910
▁निकला	-11911
▁पड़ती	-11912
▁लाकूड	-11913
▁विलंब	-11914
▁सोसाय	-11915
स्तियों	-11916
▁कीमतों	-11917
▁जोरदार	-11918
▁निकासी	-11919
▁निवारक	-11920
▁पॉलिसी	-11921
▁मिळावी	-11922
▁येताना	-11923
▁स्टैंड	-11924
▁मजदूरों	-11925
▁वल्हांड	-11926
▁सर्वत्र	-11927
▁असामान्य	-11928
▁कांग्रेस	-11929
▁दुसरीकडे	-11930
▁बेंगलुरु	-11931
▁याद्वारे	-11932
▁स्वर्गीय	-11933
▁आत्म्याने	-11934
▁कर्तव्यों	-11935
▁शास्त्रीय	-11936
उप	-11937
घाट	-11938
टोक	-11939
सलत	-11940
▁थड	-11941
ंशिक	-11942
नामी	-11943
स्थल	-11944
्तार	-11945
▁कॉम	-11946
▁खाट	-11947
▁खेड	-11948
▁फुल	-11949
▁लोट	-11950
▁अनुष	-11951
▁ऊँचे	-11952
▁एसोस	-11953
▁गुहे	-11954
▁थोडी	-11955
▁दीपक	-11956
▁फंसे	-11957
▁शिमी	-11958
▁दिसले	-11959
▁भरपाई	-11960
▁मारली	-11961
▁सूत्र	-11962
▁आईआईटी	-11963
▁महावीर	-11964
▁कंट्रोल	-11965
▁वयाच्या	-11966
▁पहुँचाया	-11967
▁अनौपचारिक	-11968
38	-11969
लंड	-11970
सरण	-11971
आईएस	-11972
जीवन	-11973
▁ज़े	-11974
▁झाक	-11975
▁नकद	-11976
▁भजन	-11977
▁लैब	-11978
▁वगळ	-11979
▁ऑप्ट	-11980
▁कब्ज	-11981
▁खतना	-11982
▁ज्वर	-11983
▁स्तो	-11984
▁स्पा	-11985
पद्धती	-11986
▁एक्सच	-11987
▁पंधरा	-11988
▁प्रीम	-11989
▁सामील	-11990
▁सार्क	-11991
▁अमूल्य	-11992
▁टुकड़े	-11993
▁पंद्रह	-11994
▁बर्बाद	-11995
▁मजबूती	-11996
▁यहुवेह	-11997
▁रिजर्व	-11998
▁तातडीने	-11999
▁निर्मात	-12000
▁संग्राम	-12001
▁सुल्तान	-12002
्यांपासून	-12003
▁नियुक्ति	-12004
▁सुवार्ता	-12005
▁सर्वसाधारण	-12006
▁असल्याबद्दल	-12007
▁व्यक्तीच्या	-12008
90	-12009
बोट	-12010
श्न	-12011
ऱ्हा	-12012
वस्त	-12013
▁आवृ	-12014
▁छुट	-12015
▁दमन	-12016
▁फेफ	-12017
▁रसो	-12018
▁साई	-12019
क्यों	-12020
तर्फे	-12021
▁गोरख	-12022
▁चौथी	-12023
▁छत्र	-12024
▁जखमी	-12025
▁दौड़	-12026
▁द्वि	-12027
▁उचलून	-12028
▁क्रूर	-12029
▁तत्वे	-12030
▁तेवढे	-12031
▁पीडित	-12032
▁फास्ट	-12033
▁अनुबंध	-12034
▁आतिथ्य	-12035
▁आत्मान	-12036
▁आधारीत	-12037
▁दिखाने	-12038
▁दिलेला	-12039
▁महादेव	-12040
▁योसेफा	-12041
प्लिकेशन	-12042
▁अंबेडकर	-12043
▁चंडीगढ़	-12044
▁जगन्नाथ	-12045
▁पराक्रम	-12046
▁ब्राजील	-12047
▁मंडळाने	-12048
▁मलेरिया	-12049
▁तरुणांना	-12050
▁दुर्लक्ष	-12051
▁प्रस्थान	-12052
▁येण्याची	-12053
▁दृष्टान्त	-12054
▁राहण्याची	-12055
▁समुदायाला	-12056
▁निवृत्तीवेतन	-12057
ईने	-12058
एचओ	-12059
बेद	-12060
महल	-12061
िपल	-12062
एनआर	-12063
चेही	-12064
निधी	-12065
सीआय	-12066
स्पा	-12067
▁ठरत	-12068
▁बटा	-12069
▁शमा	-12070
▁अतुल	-12071
▁गिरी	-12072
▁नियो	-12073
▁बिला	-12074
▁बोतल	-12075
▁ब्लू	-12076
▁मर्द	-12077
▁रकमे	-12078
व्हर्न	-12079
▁गुन्ह	-12080
▁घूमने	-12081
▁ड्रोन	-12082
▁पडतील	-12083
▁सुषमा	-12084
▁गवर्नर	-12085
▁रिश्ते	-12086
▁विमानन	-12087
▁सिखाया	-12088
▁आत्माओं	-12089
▁खालच्या	-12090
▁दीनदयाल	-12091
▁विद्वान	-12092
▁कन्वेंशन	-12093
▁चुकीच्या	-12094
▁पुरस्कृत	-12095
▁प्रश्नों	-12096
▁यहोशवाने	-12097
ण्याबरोबरच	-12098
▁पूर्वेकडील	-12099
▁प्रत्येकजण	-12100
▁प्रवाशांना	-12101
▁सर्वेक्षणात	-12102
▁सामर्थ्यवान	-12103
▁अध्यक्षतेखालील	-12104
ak	-12105
िको	-12106
ंतून	-12107
अपने	-12108
एसएम	-12109
नाशी	-12110
मिशन	-12111
ोरमा	-12112
▁एनी	-12113
▁गरु	-12114
▁ढेर	-12115
▁बोर	-12116
▁मनी	-12117
▁शकू	-12118
▁हरा	-12119
मुळेच	-12120
सैनिक	-12121
्यूटर	-12122
▁असुर	-12123
▁गिबा	-12124
▁चकित	-12125
▁जरिए	-12126
▁तशीच	-12127
▁दुखी	-12128
▁वाटे	-12129
▁वॉटर	-12130
▁सूखे	-12131
रुपयोग	-12132
▁इस्रो	-12133
▁नगरों	-12134
▁नेमले	-12135
▁प्लेग	-12136
▁रक्षक	-12137
पणाच्या	-12138
▁आचार्य	-12139
▁जुड़ने	-12140
▁परतावा	-12141
▁मंचावर	-12142
्यांकडून	-12143
▁अनंतकाळ	-12144
▁अर्थाने	-12145
▁असतानाच	-12146
▁कौशल्या	-12147
▁शुरुआती	-12148
▁वेळोवेळी	-12149
▁सर्वांची	-12150
▁पुनर्जीवित	-12151
▁सोन्याच्या	-12152
▁उम्मीदवारों	-12153
▁लॉजिस्टिक्स	-12154
▁प्रकल्पांसाठी	-12155
▁पंतप्रधानांकडून	-12156
ँव	-12157
उल	-12158
.25	-12159
गमन	-12160
फेल	-12161
म्भ	-12162
इयाँ	-12163
रेटर	-12164
ार्द	-12165
्याथ	-12166
▁जलन	-12167
▁ठरू	-12168
▁धीर	-12169
▁भां	-12170
▁लेक	-12171
िकल्स	-12172
▁2010	-12173
▁आगरा	-12174
▁एकमत	-12175
▁टाळे	-12176
▁डिजी	-12177
▁पहलू	-12178
▁लाखा	-12179
▁अंजीर	-12180
▁अर्धा	-12181
▁इंजिन	-12182
▁जैतून	-12183
▁तस्वी	-12184
▁तिकडे	-12185
▁एनर्जी	-12186
▁कपड़ों	-12187
▁खाल्ले	-12188
▁चिल्ला	-12189
▁परिधान	-12190
▁शहाणपण	-12191
▁गावातील	-12192
▁डिलीवरी	-12193
▁माणसाचे	-12194
▁मुख्तार	-12195
▁रक्तचाप	-12196
▁पहुंचाने	-12197
▁सब्जियों	-12198
▁हिज्कीया	-12199
▁भागांमध्ये	-12200
▁स्टार्टअप्स	-12201
▁प्रशिक्षणार्थी	-12202
ठन	-12203
षी	-12204
SIR	-12205
यूर	-12206
▁to	-12207
▁रौ	-12208
▁४०	-12209
क्की	-12210
रीने	-12211
▁खिल	-12212
▁तसं	-12213
▁बनू	-12214
मित्व	-12215
▁नंदा	-12216
▁फोटो	-12217
▁बँका	-12218
▁बरीच	-12219
▁बेहत	-12220
▁रिंग	-12221
▁लायक	-12222
▁सांड	-12223
▁सोडा	-12224
▁हायड	-12225
ठिकाणी	-12226
▁जागृत	-12227
▁टेकडी	-12228
▁शमशोन	-12229
▁सरपंच	-12230
▁सांसद	-12231
निर्देश	-12232
▁ब्रांड	-12233
▁आघाडीवर	-12234
▁चुनावों	-12235
▁संभालने	-12236
▁क्षेत्रे	-12237
▁योजनांचा	-12238
▁विज्ञाना	-12239
▁शास्त्री	-12240
▁सीतारामन	-12241
▁उपस्थितीत	-12242
▁तुमच्याशी	-12243
▁क्षेत्राचा	-12244
▁निमित्ताने	-12245
▁देशांदरम्यान	-12246
ED	-12247
PP	-12248
▁i	-12249
.04	-12250
ंकष	-12251
खूप	-12252
देह	-12253
▁96	-12254
▁Yo	-12255
▁डब	-12256
▁‘‘	-12257
गाचे	-12258
टाने	-12259
वावर	-12260
व्यय	-12261
शाची	-12262
िंटल	-12263
▁काँ	-12264
▁चुप	-12265
▁नाल	-12266
कारों	-12267
क्ष्य	-12268
पालिक	-12269
विद्य	-12270
▁3000	-12271
▁जेके	-12272
▁तारा	-12273
▁नीले	-12274
▁पीएस	-12275
▁बोले	-12276
▁भिंत	-12277
▁रियल	-12278
घाच्या	-12279
प्रमाण	-12280
▁गिरने	-12281
▁फूलों	-12282
▁भक्ति	-12283
▁मोकळे	-12284
▁वैष्ण	-12285
▁सार्थ	-12286
▁स्नात	-12287
▁हड्डी	-12288
तेनुसार	-12289
ष्टीकरण	-12290
स्ट्रॉल	-12291
▁कमांडर	-12292
▁परवाना	-12293
▁बढ़ाता	-12294
▁बांधका	-12295
▁2015-16	-12296
▁जैसलमेर	-12297
▁परिणामी	-12298
▁पर्वतीय	-12299
▁यारोबाम	-12300
पंतप्रधान	-12301
▁टाळेबंदी	-12302
▁पाइपलाइन	-12303
▁राजनैतिक	-12304
▁लोकांकडे	-12305
▁अनुषंगाने	-12306
▁आपल्यासाठी	-12307
▁इन्स्टिट्यूट	-12308
▁सहकार्याच्या	-12309
▁लाभार्थ्यांना	-12310
74	-12311
GA	-12312
esh	-12313
टीओ	-12314
प्स	-12315
▁03	-12316
▁आं	-12317
दूरी	-12318
बीसी	-12319
िद्र	-12320
्डों	-12321
▁किल	-12322
▁बंड	-12323
▁शार	-12324
.2019	-12325
ापत्र	-12326
▁अचूक	-12327
▁खंभे	-12328
▁बदले	-12329
▁रोते	-12330
▁संगण	-12331
▁स्टे	-12332
▁स्वै	-12333
▁आशंका	-12334
▁उभरती	-12335
▁खुजली	-12336
▁ग्लेश	-12337
▁जोखीम	-12338
▁ठहरने	-12339
▁धारणा	-12340
▁बद्दल	-12341
▁युनिट	-12342
▁योद्ध	-12343
▁शेकडो	-12344
▁अपराधी	-12345
▁एलएमटी	-12346
▁कुपोषण	-12347
▁घोड़ों	-12348
▁ठेवतात	-12349
▁दिसतात	-12350
▁प्रायः	-12351
▁साहसिक	-12352
▁सुचारू	-12353
▁2014-15	-12354
▁अलिकडेच	-12355
▁इतरांना	-12356
▁गड़बड़ी	-12357
▁विद्रोह	-12358
▁सगळीकडे	-12359
▁सदस्यता	-12360
▁गौरवशाली	-12361
▁ग्राहकों	-12362
▁पुरातत्व	-12363
▁प्राधिकर	-12364
▁यहोशापात	-12365
▁नौदलाच्या	-12366
▁नेण्यासाठी	-12367
▁हिंदुस्तान	-12368
▁शिष्यवृत्ती	-12369
-4	-12370
66	-12371
’’	-12372
▁धम	-12373
▁बछ	-12374
ट्टर	-12375
डीएफ	-12376
नाथन	-12377
हानी	-12378
▁घने	-12379
▁जशी	-12380
▁टेल	-12381
▁भोग	-12382
▁मेघ	-12383
स्टेक	-12384
▁आयरन	-12385
▁घटने	-12386
▁जेएन	-12387
▁मोटा	-12388
▁रोने	-12389
▁लाना	-12390
▁लेखक	-12391
▁स्क्	-12392
▁हेही	-12393
▁गोल्फ	-12394
▁जिनका	-12395
▁मानता	-12396
▁सुरवा	-12397
▁दिवाळख	-12398
▁भीतीने	-12399
▁लज्जित	-12400
▁वापरले	-12401
▁दावीदला	-12402
▁रूपांतर	-12403
▁सर्वंकष	-12404
▁प्रमुखों	-12405
▁प्राप्ती	-12406
▁वस्तूंचा	-12407
▁गोष्टींची	-12408
▁त्यामुळेच	-12409
▁भागातल्या	-12410
▁स्वयंसेवी	-12411
▁गर्भावस्था	-12412
▁व्यक्तित्व	-12413
▁कोरोनावायरस	-12414
▁सुविधांच्या	-12415
▁पर्यटकांसाठी	-12416
▁गुणवत्तापूर्ण	-12417
12	-12418
BI	-12419
MC	-12420
आयु	-12421
तले	-12422
ूनी	-12423
▁नह	-12424
गुती	-12425
नातन	-12426
ल्चर	-12427
शांत	-12428
्युर	-12429
▁त्य	-12430
▁दुध	-12431
▁भंग	-12432
▁मेम	-12433
▁मेर	-12434
▁वया	-12435
विष्ठ	-12436
िलिंग	-12437
▁2008	-12438
▁अपघा	-12439
▁उठून	-12440
▁ठरला	-12441
▁तोळे	-12442
▁दिवे	-12443
▁धरुन	-12444
▁परेड	-12445
▁माली	-12446
▁वाटर	-12447
▁वैसा	-12448
▁श्या	-12449
मासाठी	-12450
▁अवलोक	-12451
▁केलीस	-12452
▁दूषित	-12453
▁देहरा	-12454
▁पियुष	-12455
▁मुद्र	-12456
▁लिहून	-12457
▁सुनते	-12458
▁हाताळ	-12459
दनेस्सर	-12460
▁Bharat	-12461
▁खर्चात	-12462
▁गोविंद	-12463
▁दुपारी	-12464
▁निविदा	-12465
▁येणारा	-12466
▁स्टोरे	-12467
▁अम्मोनी	-12468
▁खांद्या	-12469
▁नवोन्मे	-12470
▁राहणारे	-12471
▁सगळ्यात	-12472
बेकिस्तान	-12473
▁उर्वरकों	-12474
▁पुनर्वास	-12475
▁भूमिपूजन	-12476
▁खर्चाच्या	-12477
▁आव्हानांना	-12478
▁इंटेलिजेंस	-12479
▁केंद्राच्या	-12480
▁विरुद्धच्या	-12481
▁v	-12482
बिन	-12483
ोजा	-12484
▁In	-12485
▁पंप	-12486
▁पतर	-12487
▁पाद	-12488
▁शके	-12489
▁सैर	-12490
वैद्य	-12491
▁असंत	-12492
▁एदोम	-12493
▁गिना	-12494
▁नसतो	-12495
▁मंगल	-12496
▁यहीं	-12497
▁रत्न	-12498
▁लाइट	-12499
▁वाचव	-12500
▁कोच्च	-12501
▁कोर्ट	-12502
▁दिसेल	-12503
▁पंचाय	-12504
▁पोषित	-12505
▁फटकार	-12506
▁ब्रिज	-12507
▁मैसूर	-12508
रामध्ये	-12509
▁अर्थात्	-12510
▁बढ़ाएगा	-12511
▁रामेश्व	-12512
▁राहायला	-12513
▁लक्ष्मी	-12514
▁सैनिटाइ	-12515
▁कंपनियां	-12516
▁सर्दियों	-12517
▁त्याविषयी	-12518
▁पुनरुज्जी	-12519
▁यिर्मयाला	-12520
▁दुष्कृत्ये	-12521
▁प्रभावीपणे	-12522
▁शस्त्रक्रिय	-12523
57	-12524
DC	-12525
लीम	-12526
षेध	-12527
सेन	-12528
हूर	-12529
▁इम	-12530
▁ढल	-12531
नाती	-12532
मिरल	-12533
▁कुं	-12534
▁दंत	-12535
▁मेश	-12536
निवेश	-12537
▁इथून	-12538
▁एसिड	-12539
▁टाटा	-12540
▁दरों	-12541
▁रसोई	-12542
▁खोजने	-12543
▁पदभार	-12544
▁प्याय	-12545
▁फाइबर	-12546
▁बड़ों	-12547
ानाच्या	-12548
▁कुठेही	-12549
▁जंगलों	-12550
▁जापानी	-12551
▁देशाने	-12552
▁पुरेशी	-12553
▁बद्धको	-12554
▁भाज्या	-12555
▁विष्णु	-12556
▁सामरिक	-12557
▁आमंत्रण	-12558
▁इश्माएल	-12559
▁तीव्रता	-12560
▁परदेशात	-12561
▁रूपरेखा	-12562
▁सेनापती	-12563
▁स्टोरेज	-12564
▁अनुच्छेद	-12565
▁कामाच्या	-12566
▁द्राक्षम	-12567
▁परिणामकारक	-12568
▁शस्त्रक्रिया	-12569
▁परमेश्वरासाठी	-12570
▁करण्यासाठीच्या	-12571
▁विद्यार्थ्यांनी	-12572
ऊक	-12573
डीच	-12574
बिट	-12575
लेव	-12576
वां	-12577
हिक	-12578
ोहण	-12579
एनएल	-12580
गुरु	-12581
ताली	-12582
▁ऋतु	-12583
कीकरण	-12584
पणाचा	-12585
वाहित	-12586
सिफिक	-12587
▁गोंध	-12588
▁चळवळ	-12589
▁ठरते	-12590
▁ठेवत	-12591
▁लोका	-12592
▁शर्क	-12593
▁शिंग	-12594
▁सख्त	-12595
▁सवार	-12596
▁कटौती	-12597
▁घोड़े	-12598
▁ठरतील	-12599
▁परमेश	-12600
▁पुरवठ	-12601
▁लंबित	-12602
▁वापसी	-12603
▁श्वेत	-12604
▁सम्रा	-12605
कापासून	-12606
दारांना	-12607
प्लेक्स	-12608
▁अंडमान	-12609
▁अंतराल	-12610
▁घरगुती	-12611
▁दुहेरी	-12612
▁मजदूरी	-12613
▁युद्धा	-12614
▁लेबनान	-12615
▁वास्तु	-12616
▁आफ्रिका	-12617
▁थाईलैंड	-12618
▁पसरलेले	-12619
▁ब्राझील	-12620
▁मुलांचे	-12621
▁मूर्खता	-12622
▁ग्लेशियर	-12623
▁जेणेकरुन	-12624
▁राज्यसभेत	-12625
▁रुग्णाच्या	-12626
▁सुरक्षितता	-12627
▁प्लेटफार्मों	-12628
▁सांगितलेल्या	-12629
37	-12630
ma	-12631
कॉ	-12632
ठ्	-12633
एगी	-12634
णूक	-12635
ोही	-12636
▁-2	-12637
▁62	-12638
▁86	-12639
▁ईद	-12640
▁कथ	-12641
तशीर	-12642
बाचा	-12643
विधा	-12644
▁कळत	-12645
▁थीम	-12646
▁नोए	-12647
डच्या	-12648
मुख्य	-12649
▁अवयव	-12650
▁घायल	-12651
▁ताबा	-12652
▁यूएस	-12653
▁लेती	-12654
▁वितर	-12655
कार्बन	-12656
▁आंखें	-12657
▁उद्दी	-12658
▁जयपूर	-12659
▁नित्य	-12660
▁पौधों	-12661
▁बजावत	-12662
▁भागों	-12663
▁मार्क	-12664
▁वाहिन	-12665
▁अन्याय	-12666
▁खतरनाक	-12667
▁चर्चास	-12668
▁नारंगी	-12669
▁पुनर्ग	-12670
▁मुक्ती	-12671
▁अस्थायी	-12672
▁उपनगरों	-12673
▁ऑक्सिजन	-12674
▁क्विंटल	-12675
▁देवाकडे	-12676
▁प्रशांत	-12677
▁उत्पत्ति	-12678
▁तलवारीने	-12679
▁प्रतिकार	-12680
▁वल्लभभाई	-12681
▁स्वर्गात	-12682
▁सत्याग्रह	-12683
▁स्वामित्व	-12684
▁टक्क्यांवर	-12685
▁लढण्यासाठी	-12686
▁संरचनात्मक	-12687
▁किलोमीटरच्या	-12688
णम	-12689
पाठ	-12690
मेज	-12691
▁फौ	-12692
▁१३	-12693
ताचा	-12694
मत्व	-12695
ळावे	-12696
▁आरो	-12697
▁दुब	-12698
▁सेब	-12699
▁ह्र	-12700
तांचे	-12701
हाबाद	-12702
▁इनाम	-12703
▁एवढा	-12704
▁नज़र	-12705
▁सदोम	-12706
शबोर्ड	-12707
▁उखाड़	-12708
▁कापून	-12709
▁खजाने	-12710
▁खासकर	-12711
▁गुलाब	-12712
▁ज्ञात	-12713
▁तुकडी	-12714
▁प्लान	-12715
▁बोलले	-12716
▁मर्दख	-12717
मध्येही	-12718
▁जनतेने	-12719
▁जवानों	-12720
▁जिल्हे	-12721
▁मुक्ति	-12722
▁मेजबान	-12723
्यांमधील	-12724
▁अर्ध्या	-12725
▁घराच्या	-12726
▁लक्षणों	-12727
प्रक्रिया	-12728
▁इतिहासात	-12729
▁गांधीनगर	-12730
▁निर्जंतु	-12731
▁मंदिराची	-12732
▁करणाऱ्यां	-12733
▁सीमावर्ती	-12734
▁उपभोक्ताओं	-12735
▁काळजीपूर्वक	-12736
AL	-12737
कोश	-12738
थिक	-12739
दाह	-12740
फिर	-12741
ऱ्ह	-12742
वेद	-12743
संग	-12744
करणा	-12745
▁आदत	-12746
▁ओरड	-12747
▁कूळ	-12748
▁डिफ	-12749
▁धाम	-12750
▁बनो	-12751
▁बहस	-12752
िशियल	-12753
्यूटी	-12754
▁कापड	-12755
▁टेबल	-12756
▁दांत	-12757
▁दोहन	-12758
▁धरून	-12759
▁नायक	-12760
▁रोडम	-12761
▁हाडे	-12762
ूपासून	-12763
▁इरादा	-12764
▁कितने	-12765
▁चलाया	-12766
▁टाकली	-12767
▁ट्राय	-12768
▁तारखे	-12769
▁ध्वनि	-12770
▁प्रसव	-12771
▁बेकार	-12772
▁भेजने	-12773
▁महिना	-12774
▁समक्ष	-12775
▁अवलोकन	-12776
▁इलाकों	-12777
▁एलाजार	-12778
▁थायलंड	-12779
▁पद्धति	-12780
▁मूल्ये	-12781
▁राहिलो	-12782
▁वरच्या	-12783
▁कानाकोप	-12784
▁पोहोचले	-12785
▁मार्गों	-12786
▁शतकातील	-12787
▁सुरूवात	-12788
▁कृतज्ञता	-12789
▁भूमीपूजन	-12790
▁संस्थाओं	-12791
▁होमार्पण	-12792
▁दिवाळखोरी	-12793
▁किनारपट्टी	-12794
▁क्षेत्राशी	-12795
▁प्रतिबिंबित	-12796
88	-12797
थल	-12798
.30	-12799
तेच	-12800
शाप	-12801
हाट	-12802
णुका	-12803
तीचे	-12804
धनुष	-12805
माना	-12806
ांचल	-12807
ारों	-12808
▁अजय	-12809
▁आंत	-12810
▁ओवर	-12811
▁मका	-12812
▁वाई	-12813
▁सता	-12814
▁सवय	-12815
ित्या	-12816
▁फुफ्	-12817
▁वर्च	-12818
▁कालेब	-12819
▁निषेध	-12820
▁पॅरिस	-12821
▁भरभरा	-12822
▁राहता	-12823
▁समतोल	-12824
▁हल्के	-12825
▁आउटरीच	-12826
▁आर्टिफ	-12827
▁कोच्चि	-12828
▁ज्ञानी	-12829
▁पाठवला	-12830
▁बैठकें	-12831
▁रवांडा	-12832
▁उत्साही	-12833
▁कारखाने	-12834
▁मांसपेश	-12835
▁विभागीय	-12836
▁एयरपोर्ट	-12837
▁पूर्वेला	-12838
▁लड़कियों	-12839
▁सामुग्री	-12840
▁किफायतशीर	-12841
▁बाजारपेठे	-12842
▁नागरिकांचे	-12843
▁निवडलेल्या	-12844
▁परिस्थितीचा	-12845
▁प्रकल्पांना	-12846
▁उत्पादनांच्या	-12847
▁महाराष्ट्रातील	-12848
).	-12849
NR	-12850
आल	-12851
छता	-12852
▁गळ	-12853
▁लू	-12854
म्मा	-12855
याजक	-12856
शाने	-12857
साला	-12858
़ाइन	-12859
ार्स	-12860
▁चिप	-12861
▁दाग	-12862
▁विख	-12863
▁अयोध	-12864
▁अवधी	-12865
▁आणणे	-12866
▁आरबी	-12867
▁तसाच	-12868
▁पुनः	-12869
▁भाडे	-12870
▁रखती	-12871
▁हमला	-12872
वासाठी	-12873
▁अध्यय	-12874
▁एखादे	-12875
▁एलिया	-12876
▁किराए	-12877
▁ट्राइ	-12878
▁मनोहर	-12879
▁वाढतो	-12880
▁ह्यात	-12881
▁अड्डों	-12882
▁कुंभमे	-12883
▁गुप्ता	-12884
▁जनजाति	-12885
▁तैनाती	-12886
▁धोरणात	-12887
▁पलीकडे	-12888
▁प्रिंस	-12889
▁भोवताल	-12890
▁मदतीची	-12891
▁मानसून	-12892
▁सीपीएस	-12893
▁कारोबार	-12894
▁दायित्व	-12895
▁प्रसूती	-12896
▁सोसायटी	-12897
▁कंप्यूटर	-12898
▁कोशिकाओं	-12899
▁गर्विष्ठ	-12900
▁निर्माते	-12901
▁मवेशियों	-12902
▁सूचीबद्ध	-12903
▁प्रसन्नता	-12904
▁हस्तशिल्प	-12905
▁शोधकर्ताओं	-12906
▁घालण्यासाठी	-12907
▁प्रयत्नांचे	-12908
AF	-12909
एई	-12910
बूत	-12911
िकर	-12912
दिया	-12913
भूति	-12914
सीजी	-12915
▁अवर	-12916
▁ऐकत	-12917
▁ठाम	-12918
▁तीच	-12919
▁मिर	-12920
▁लम्	-12921
▁वाक	-12922
रक्षा	-12923
िंग्स	-12924
▁उग्र	-12925
▁जुनी	-12926
▁ब्लॉ	-12927
▁यहुद	-12928
▁यहोआ	-12929
▁सखोल	-12930
कॉमर्स	-12931
▁इतकेच	-12932
▁ऊंचाई	-12933
▁खोकला	-12934
▁दार्ज	-12935
▁पायलट	-12936
▁मराठी	-12937
▁येथेच	-12938
▁रहबाम	-12939
▁शहाणा	-12940
▁गतिशील	-12941
▁जनगणना	-12942
▁तिन्ही	-12943
▁दोस्ती	-12944
▁पाठवून	-12945
▁प्रचुर	-12946
▁बाजूने	-12947
▁बुकिंग	-12948
▁मुलांनी	-12949
▁इंजेक्शन	-12950
▁दस्तावेज	-12951
▁यात्रेकर	-12952
संदर्भातील	-12953
▁परीक्षणों	-12954
▁कंपन्यांनी	-12955
▁विकासात्मक	-12956
▁सद्यस्थिती	-12957
▁स्पष्टीकरण	-12958
▁प्रसारमाध्यम	-12959
-5	-12960
तक	-12961
-14	-12962
ंसह	-12963
चून	-12964
मेट	-12965
रेस	-12966
▁गै	-12967
▁बक	-12968
नेने	-12969
रेशन	-12970
▁2.0	-12971
▁अदो	-12972
▁एलि	-12973
▁डोर	-12974
▁तळा	-12975
▁दृश	-12976
▁वक्	-12977
कर्ते	-12978
वर्धक	-12979
▁कपात	-12980
▁नंगे	-12981
▁नियत	-12982
▁मिसा	-12983
▁वर्ध	-12984
▁सवयी	-12985
▁साहि	-12986
▁स्वय	-12987
राइटिस	-12988
ऱ्याचे	-12989
▁अंगूर	-12990
▁अस्वी	-12991
▁इकोनॉ	-12992
▁कीमती	-12993
▁गरिमा	-12994
▁मामला	-12995
▁अनुपात	-12996
▁अब्दुल	-12997
▁काळ्या	-12998
▁निकटतम	-12999
▁पैगंबर	-13000
▁पोलियो	-13001
▁कच्च्या	-13002
▁देशातले	-13003
▁मेजवानी	-13004
▁लचीलापन	-13005
▁हृदयविक	-13006
▁निर्धारण	-13007
▁उपाहारगृह	-13008
▁मंडळाच्या	-13009
▁आर्टिफिशियल	-13010
▁चुनौतीपूर्ण	-13011
▁पेट्रोकेमिक	-13012
▁यांच्यामध्ये	-13013
BT	-13014
नॅ	-13015
‍य	-13016
चिन	-13017
बाय	-13018
मानी	-13019
▁चीफ	-13020
▁नमा	-13021
▁बकर	-13022
▁शनि	-13023
▁सौह	-13024
देशीय	-13025
बुद्ध	-13026
यांनी	-13027
स्मिक	-13028
हेरील	-13029
▁आवरण	-13030
▁कतार	-13031
▁गंगो	-13032
▁डिझा	-13033
▁बराच	-13034
▁रांग	-13035
▁वीजा	-13036
00,000	-13037
ंगाबाद	-13038
ोन्मुख	-13039
▁कम्यु	-13040
▁केलास	-13041
▁जंगला	-13042
▁पुतिन	-13043
▁भवनात	-13044
▁लगाना	-13045
▁लौटने	-13046
▁हिरवा	-13047
वासियों	-13048
▁कठिनाई	-13049
▁ज्याची	-13050
▁दोगुनी	-13051
▁नावाची	-13052
▁निष्ठा	-13053
▁प्राची	-13054
▁फ्रेंच	-13055
▁शासकों	-13056
▁सांगता	-13057
▁कॉरिडॉर	-13058
▁झाल्यास	-13059
▁ठेवायला	-13060
▁तीर्थया	-13061
▁न्यायिक	-13062
▁विचारात	-13063
▁संसाधने	-13064
▁गेल्यावर	-13065
▁जल्दबाजी	-13066
▁देहरादून	-13067
▁शक्तिमान	-13068
▁अडकलेल्या	-13069
▁गिर्यारोह	-13070
▁दिवसाच्या	-13071
▁बुजुर्गों	-13072
▁वास्तुकला	-13073
▁व्यासपीठा	-13074
▁स्थितियों	-13075
▁स्वर्गातील	-13076
▁आरोग्यासाठी	-13077
▁कन्याकुमारी	-13078
▁बुद्धिमत्ता	-13079
▁परमेश्वराकडे	-13080
▁मुख्यमंत्रियों	-13081
ho	-13082
ut	-13083
-30	-13084
pur	-13085
▁चॅ	-13086
साची	-13087
ेंटी	-13088
ॉर्क	-13089
▁गिन	-13090
▁बघा	-13091
▁बोग	-13092
▁मने	-13093
▁स्‍	-13094
भावना	-13095
्यूशन	-13096
▁अंगण	-13097
▁खरीफ	-13098
▁तलाव	-13099
▁तेही	-13100
▁पैलू	-13101
▁भवित	-13102
▁साइट	-13103
▁सीएम	-13104
ण्याने	-13105
रोजगार	-13106
ासारखा	-13107
्याकडे	-13108
▁अशक्य	-13109
▁खाड़ी	-13110
▁टाकला	-13111
▁डेव्ह	-13112
▁तालाब	-13113
▁दाखिल	-13114
▁पाडाव	-13115
▁पार्व	-13116
▁पुरूष	-13117
▁मनसुख	-13118
▁करूँगा	-13119
▁चुनौति	-13120
▁जोड़ों	-13121
▁निकलता	-13122
▁निर्वा	-13123
▁प्रेमी	-13124
▁असल्यास	-13125
▁जबरदस्त	-13126
▁जीवनाचा	-13127
▁महामहीम	-13128
▁महायाजक	-13129
▁विनियमन	-13130
▁स्तोत्र	-13131
▁जवाहरलाल	-13132
▁दिग्दर्श	-13133
▁पूर्वानु	-13134
▁प्रतिरोध	-13135
▁सांगितलं	-13136
▁स्थापत्य	-13137
▁स्वचालित	-13138
▁हानिकारक	-13139
▁भावनात्मक	-13140
▁महामारीचा	-13141
▁आयुर्वेदिक	-13142
▁तुमच्यापैकी	-13143
▁प्रकल्पांची	-13144
▁तुमच्याबरोबर	-13145
▁पुरवण्यासाठी	-13146
▁राष्ट्राच्या	-13147
▁राष्ट्रपतींच्या	-13148
PA	-13149
नाई	-13150
▁78	-13151
पुरी	-13152
प्रद	-13153
मनगर	-13154
र्थी	-13155
ूंकि	-13156
▁आपो	-13157
▁ईएस	-13158
▁नूत	-13159
▁सील	-13160
▁सूख	-13161
खालील	-13162
वणारा	-13163
▁खाटा	-13164
▁गुरे	-13165
▁चोटी	-13166
▁ठोकर	-13167
▁देशभ	-13168
▁बनेल	-13169
▁बयान	-13170
▁मंडा	-13171
ळ्याचे	-13172
▁अतिथी	-13173
▁उत्पी	-13174
▁कर्नल	-13175
▁कहावत	-13176
▁चूंकि	-13177
▁डायरे	-13178
▁निचले	-13179
▁नोएडा	-13180
▁पहाटे	-13181
▁प्रोड	-13182
▁भक्ता	-13183
▁रूबेन	-13184
▁विधेय	-13185
▁सालों	-13186
▁पीसीआर	-13187
▁रोडमैप	-13188
▁वाचवले	-13189
▁समारोप	-13190
▁सल्लाम	-13191
▁कॉरिडोर	-13192
▁निपटारा	-13193
▁निर्धार	-13194
▁प्रशस्त	-13195
▁मिलेंगे	-13196
णाऱ्यांना	-13197
▁कायद्यात	-13198
▁तत्कालीन	-13199
▁परिषदेची	-13200
▁मानसिकता	-13201
▁मिसरमधून	-13202
▁कार्यशाळा	-13203
▁कुटुंबाला	-13204
▁त्याचवेळी	-13205
▁सदस्यांनी	-13206
▁ह्यांमध्ये	-13207
33	-13208
ओपी	-13209
जाम	-13210
ड्स	-13211
प्य	-13212
शोथ	-13213
ानं	-13214
क्रा	-13215
टाइम	-13216
योजन	-13217
लयात	-13218
स्फी	-13219
हिमा	-13220
▁उला	-13221
▁गये	-13222
▁ज्व	-13223
▁डिप	-13224
▁फीस	-13225
▁भरत	-13226
▁सभे	-13227
▁हजर	-13228
ल्यात	-13229
ामुळे	-13230
▁अहरो	-13231
▁खाऊन	-13232
▁ताजा	-13233
▁पौधे	-13234
▁यावा	-13235
▁सोलर	-13236
मध्येच	-13237
▁आस्था	-13238
▁किस्म	-13239
▁निशंक	-13240
▁फेकून	-13241
▁बर्फ़	-13242
▁बाटली	-13243
▁मसाले	-13244
▁सहानु	-13245
▁सुरंग	-13246
्यांकडे	-13247
▁20,000	-13248
▁अनुभवी	-13249
▁आजारात	-13250
▁ग्रामो	-13251
▁जमिनीत	-13252
▁राजाचे	-13253
▁स्कूली	-13254
▁अपडेट्स	-13255
▁अयोध्या	-13256
▁आकस्मिक	-13257
▁आत्मसात	-13258
▁कटीबद्ध	-13259
▁गोव्यात	-13260
▁बाबेलचा	-13261
▁भांडवली	-13262
▁राजनयिक	-13263
▁विलक्षण	-13264
▁समाजाला	-13265
▁ह्यांचे	-13266
्यापर्यंत	-13267
▁गंगोत्री	-13268
▁फायदेमंद	-13269
▁मूल्यवान	-13270
▁राज्यांत	-13271
▁साक्षरता	-13272
▁आजाराच्या	-13273
▁एकमेकांशी	-13274
▁परिकल्पना	-13275
▁मुलांसाठी	-13276
▁राज्यपाला	-13277
▁सदस्यांना	-13278
▁सहाय्याने	-13279
▁साधारणपणे	-13280
▁पूर्वजांनी	-13281
▁नबूकदनेस्सर	-13282
▁इस्राएलाच्या	-13283
▁तंत्रज्ञानाची	-13284
46	-13285
ैग	-13286
ity	-13287
काव	-13288
दाट	-13289
फिस	-13290
बीन	-13291
मुद	-13292
रिश	-13293
िज़	-13294
▁कं	-13295
▁पठ	-13296
गारी	-13297
ड्डा	-13298
भूषण	-13299
रहित	-13300
ापुर	-13301
▁कळप	-13302
▁कोय	-13303
▁डैन	-13304
▁धरा	-13305
▁बिर	-13306
क्षणा	-13307
वाड़ा	-13308
ोडिया	-13309
▁असोत	-13310
▁कंधे	-13311
▁कचरे	-13312
▁गायक	-13313
▁चौबी	-13314
▁मुगल	-13315
▁लपून	-13316
▁शंका	-13317
▁समजत	-13318
▁हेतु	-13319
▁होतं	-13320
भारतीय	-13321
▁कॅनडा	-13322
▁खातिर	-13323
▁प्रकर	-13324
▁भोवती	-13325
▁यायला	-13326
▁यूनिट	-13327
▁सिंहा	-13328
▁असणारी	-13329
▁एवढ्या	-13330
▁ग्रंथी	-13331
▁नवनवीन	-13332
▁रिझर्व	-13333
▁व्हिसा	-13334
▁सेवाएँ	-13335
▁छुटकारा	-13336
▁डिज़ाइन	-13337
▁मिश्रित	-13338
▁यहोयादा	-13339
▁विरूद्ध	-13340
▁सबलीकरण	-13341
्यांबद्दल	-13342
▁ट्रैकिंग	-13343
▁आघाडीच्या	-13344
▁उद्योजकता	-13345
▁फ्रेमवर्क	-13346
▁संभावनाएं	-13347
▁हेल्थकेयर	-13348
▁हिस्सेदारी	-13349
▁l	-13350
ंकी	-13351
ंगळ	-13352
डतो	-13353
लीज	-13354
एँगे	-13355
टर्स	-13356
पिंड	-13357
शेखर	-13358
▁आपस	-13359
▁कसर	-13360
▁सज्	-13361
▁सिग	-13362
▁सीए	-13363
ग्रही	-13364
वाड़ी	-13365
सार्ह	-13366
ियमित	-13367
्याशी	-13368
▁आरडी	-13369
▁जताई	-13370
▁तांब	-13371
▁अमिता	-13372
▁आपोआप	-13373
▁घनदाट	-13374
▁फ्रंट	-13375
▁भोजना	-13376
▁रूपये	-13377
▁विपुल	-13378
▁समझते	-13379
्राच्या	-13380
▁अधिवेश	-13381
▁अन्यथा	-13382
▁उद्यमी	-13383
▁जनादेश	-13384
▁वाहिनी	-13385
▁आंकड़ों	-13386
▁दारिद्र	-13387
▁नागरिका	-13388
▁पश्चिमे	-13389
▁ह्यांचा	-13390
▁औरंगाबाद	-13391
▁गरिबांना	-13392
▁डोकेदुखी	-13393
▁समस्यांवर	-13394
▁वृत्तचित्र	-13395
▁विश्वासार्ह	-13396
▁अर्थमंत्र्यांनी	-13397
▁भविष्यद्वक्ताओं	-13398
आज	-13399
घो	-13400
मयी	-13401
हाई	-13402
▁२४	-13403
पट्ट	-13404
मंडल	-13405
शाचे	-13406
स्तव	-13407
▁अती	-13408
▁एरो	-13409
▁कड़	-13410
▁जिम	-13411
▁मरे	-13412
▁अखेर	-13413
▁अडीच	-13414
▁कांप	-13415
▁खोले	-13416
▁चढाई	-13417
▁नेतन	-13418
▁बिता	-13419
▁संशय	-13420
▁हॅके	-13421
आपल्या	-13422
यासाठी	-13423
▁इनपुट	-13424
▁एनिमा	-13425
▁कातडी	-13426
▁कारणे	-13427
▁गड्ढे	-13428
▁जलसाठ	-13429
▁जाळून	-13430
▁जेम्स	-13431
▁पांडे	-13432
▁पाडले	-13433
▁संचयी	-13434
▁स्किल	-13435
▁स्वार	-13436
▁कामाची	-13437
▁केव्हा	-13438
▁नावाचे	-13439
▁पड़ेगा	-13440
▁पब्लिक	-13441
▁मालवाह	-13442
▁सरकारे	-13443
▁सर्किट	-13444
▁हनुमान	-13445
▁अब्राहम	-13446
▁ठेवल्या	-13447
▁नातेवाई	-13448
▁भावनाओं	-13449
▁स्रोतों	-13450
▁एक्सचेंज	-13451
▁करणार्या	-13452
▁प्रवासात	-13453
▁वधस्तंभा	-13454
▁एखाद्याने	-13455
▁दाखवण्यात	-13456
▁प्रवृत्ति	-13457
▁गर्भनिरोधक	-13458
▁वास्तविकता	-13459
▁कार्यालयाचे	-13460
▁दिवसांपूर्वी	-13461
43	-13462
PI	-13463
आम	-13464
आस	-13465
लॉ	-13466
▁u	-13467
ंबी	-13468
तोष	-13469
लिन	-13470
▁IIT	-13471
▁PRA	-13472
▁औरत	-13473
▁खजु	-13474
▁खाओ	-13475
▁गवत	-13476
▁पथक	-13477
▁बघत	-13478
▁मिझ	-13479
▁मेद	-13480
-2020	-13481
यच्या	-13482
वितात	-13483
्याहू	-13484
▁कमाल	-13485
▁केयर	-13486
▁चंगा	-13487
▁चेहर	-13488
▁बाँध	-13489
▁रिफा	-13490
▁सीढ़	-13491
,&#39;	-13492
नेच्या	-13493
ऱ्याचा	-13494
ळ्याला	-13495
▁अंगों	-13496
▁आढळून	-13497
▁एहसास	-13498
▁कृत्य	-13499
▁छलांग	-13500
▁बदलते	-13501
▁यरीहो	-13502
▁वार्ड	-13503
▁समस्त	-13504
▁साजरे	-13505
▁साहिब	-13506
▁अरविंद	-13507
▁करवाया	-13508
▁कुल्लू	-13509
▁छुट्टी	-13510
▁जागेवर	-13511
▁पकड़ने	-13512
▁कराराची	-13513
▁ट्रान्स	-13514
▁इन्वेस्ट	-13515
▁प्रभुत्व	-13516
▁भारताकडे	-13517
▁समाधानों	-13518
▁पसरलेल्या	-13519
▁विशेषताएं	-13520
▁स्वैच्छिक	-13521
▁तुझ्याबरोबर	-13522
अस	-13523
२२	-13524
,20	-13525
नाइ	-13526
न्ध	-13527
ुशी	-13528
्मण	-13529
दिनी	-13530
दिवस	-13531
बीएम	-13532
▁अटी	-13533
▁ओपन	-13534
▁कोन	-13535
▁तुट	-13536
▁तुड	-13537
▁नास	-13538
▁बुध	-13539
वीकडे	-13540
ासोबत	-13541
ोरेंस	-13542
▁अवघड	-13543
▁ऐवजी	-13544
▁गाथा	-13545
▁जळजळ	-13546
▁पतरस	-13547
▁माला	-13548
▁रिक्	-13549
▁वंदन	-13550
▁उलाढा	-13551
▁लगाते	-13552
▁शुष्क	-13553
▁शौलने	-13554
▁सुनता	-13555
णापासून	-13556
न्क्लेव	-13557
्यावरील	-13558
▁आपदाओं	-13559
▁ग्यारह	-13560
▁ग्वाही	-13561
▁ज्याचे	-13562
▁पश्चात	-13563
▁महानता	-13564
▁अनुशासन	-13565
▁ऑप्टिकल	-13566
▁कारखाना	-13567
▁विपत्ति	-13568
▁जोपर्यंत	-13569
▁मेजबानों	-13570
▁म्यूजियम	-13571
▁समितियों	-13572
▁हिताच्या	-13573
▁उपचारासाठी	-13574
▁करण्याबरोबरच	-13575
ac	-13576
ुम	-13577
ज़न	-13578
नरी	-13579
बाज	-13580
राक	-13581
शाल	-13582
ांट	-13583
▁फड	-13584
▁शू	-13585
ंबीर	-13586
अमेर	-13587
कडेच	-13588
थावर	-13589
बॉडी	-13590
सीयू	-13591
ांडू	-13592
▁एआई	-13593
▁ओझे	-13594
▁ओली	-13595
▁तर्	-13596
▁नॉन	-13597
▁पेत	-13598
▁रेग	-13599
▁लिप	-13600
यॉर्क	-13601
स्पॉट	-13602
ियर्स	-13603
ृष्टी	-13604
▁अपरि	-13605
▁अशीच	-13606
▁ओबेद	-13607
▁कोसळ	-13608
▁तटों	-13609
▁दलों	-13610
▁पाचन	-13611
▁रहित	-13612
▁औषधीय	-13613
▁घातली	-13614
▁जोडली	-13615
▁झेंडा	-13616
▁पोहों	-13617
▁मरारी	-13618
▁मेमोर	-13619
▁स्कीम	-13620
ेंद्रिय	-13621
▁इकट्ठे	-13622
▁एकीकडे	-13623
▁गिलगाल	-13624
▁गुणवत्	-13625
▁तासांत	-13626
▁नारियल	-13627
▁संयोजन	-13628
▁सम्राट	-13629
▁अनुक्रम	-13630
▁अहवालात	-13631
▁कारागीर	-13632
▁ज्यांची	-13633
▁युद्धात	-13634
▁समावेशक	-13635
ल्यापासून	-13636
▁उद्दीष्ट	-13637
▁पंचायतों	-13638
▁शरीरातील	-13639
▁संसदेच्या	-13640
▁समारंभाला	-13641
▁पूर्वीच्या	-13642
▁प्रभावशाली	-13643
▁प्रस्तावों	-13644
▁संकेतस्थळावर	-13645
▁व्यवस्थापनासाठी	-13646
ंथन	-13647
पदा	-13648
लेज	-13649
ैंक	-13650
▁NC	-13651
▁एप	-13652
बीपी	-13653
ब्बे	-13654
ष्‍ट	-13655
▁गुज	-13656
▁मास	-13657
▁रक्	-13658
▁लिं	-13659
▁हेश	-13660
ऱ्‍या	-13661
ांतिक	-13662
ॉलॉजी	-13663
▁2005	-13664
▁एक्ट	-13665
▁केबल	-13666
▁क्यू	-13667
▁जमले	-13668
▁जमात	-13669
▁टॉवर	-13670
▁ड्रा	-13671
▁दावे	-13672
▁नाटक	-13673
▁नारी	-13674
▁पातळ	-13675
▁ब्री	-13676
▁रथों	-13677
▁लेखन	-13678
▁संगी	-13679
चिकित्	-13680
डीच्या	-13681
▁आम्हा	-13682
▁उपकार	-13683
▁ऑर्डर	-13684
▁ओळखून	-13685
▁कुठली	-13686
▁दुपार	-13687
▁बहिणी	-13688
▁योगाभ	-13689
ंद्वारे	-13690
प्रशांत	-13691
▁अस्थिर	-13692
▁खरीदने	-13693
▁दिवसभर	-13694
▁निवडून	-13695
▁पुढारी	-13696
▁भरलेले	-13697
▁लक्षित	-13698
▁लसीकरण	-13699
▁होम्यो	-13700
विण्याचा	-13701
▁किफायती	-13702
▁खोऱ्यात	-13703
▁जगासाठी	-13704
▁दूतावास	-13705
▁मुलांची	-13706
▁सांत्वन	-13707
▁एसोसिएशन	-13708
▁कागदपत्र	-13709
▁नात्याने	-13710
▁सिद्कीया	-13711
▁सॅनिटायझ	-13712
▁केंद्राचे	-13713
▁दुर्भाग्य	-13714
▁यांच्यावर	-13715
▁गुजरातच्या	-13716
▁प्रयत्नांचा	-13717
▁सुरक्षेसाठी	-13718
32	-13719
pp	-13720
नवे	-13721
लॉक	-13722
सेट	-13723
▁क़	-13724
▁१७	-13725
तीची	-13726
मणूक	-13727
सावा	-13728
ोग्य	-13729
▁चेन	-13730
▁फसह	-13731
प्रेर	-13732
रूध्द	-13733
वायचा	-13734
शुतोष	-13735
ोपचार	-13736
▁ईमेल	-13737
▁उठकर	-13738
▁ऑडिट	-13739
▁कटाई	-13740
▁गादी	-13741
▁टीके	-13742
▁तसंच	-13743
▁पाईप	-13744
▁मोटे	-13745
▁यरदन	-13746
▁वरुन	-13747
सिस्टम	-13748
्यांसह	-13749
▁इलाके	-13750
▁किसने	-13751
▁खिडकी	-13752
▁तिथून	-13753
▁बदलून	-13754
▁राखणे	-13755
▁रुपात	-13756
▁वृध्द	-13757
▁शापित	-13758
▁अंतरिम	-13759
▁अनुकरण	-13760
▁काळाची	-13761
▁तत्वों	-13762
▁पापबलि	-13763
▁फलदायी	-13764
▁वाढवली	-13765
प्रमाणात	-13766
▁अग्रवाल	-13767
▁द्वीपों	-13768
▁बोलावून	-13769
▁मूल्यमा	-13770
▁म्हणावे	-13771
▁सुनेंगे	-13772
▁स्कीइंग	-13773
▁हॅकेथॉन	-13774
▁प्रख्यात	-13775
▁विश्वासू	-13776
▁त्यापासून	-13777
▁निर्दिष्ट	-13778
▁निष्क्रिय	-13779
▁जरूरतमंदों	-13780
▁निवासस्थान	-13781
▁एक्सप्रेसवे	-13782
▁गुजरातमध्ये	-13783
▁छात्रवृत्ति	-13784
▁भविष्यद्वक्ता	-13785
▁अधिकाऱ्यांच्या	-13786
67	-13787
नु	-13788
एसई	-13789
ड़स	-13790
त्न	-13791
लीफ	-13792
ारो	-13793
िजन	-13794
ौली	-13795
▁ऊठ	-13796
▁एर	-13797
कुंड	-13798
▁कीं	-13799
▁गाई	-13800
▁घडत	-13801
▁चलो	-13802
▁नीम	-13803
▁पीस	-13804
▁बैच	-13805
पोस्ट	-13806
हारिक	-13807
▁आर्थ	-13808
▁क्षय	-13809
▁तेरह	-13810
▁फुले	-13811
▁भुके	-13812
▁मानो	-13813
▁मिनी	-13814
▁वचने	-13815
▁कब्जे	-13816
▁काहीं	-13817
▁किस्त	-13818
▁जगहों	-13819
▁पेरणी	-13820
▁प्याज	-13821
▁प्रगत	-13822
▁वर्गी	-13823
▁विज्ञ	-13824
▁संताप	-13825
▁अद्यतन	-13826
▁अप्रति	-13827
▁आनंदित	-13828
▁एजन्सी	-13829
▁करावेत	-13830
▁यहोराम	-13831
▁विजेता	-13832
▁आरक्षित	-13833
▁ग्रीष्म	-13834
▁तेलंगणा	-13835
▁पलिष्टी	-13836
▁पुण्यति	-13837
▁स्त्रोत	-13838
ण्याविषयी	-13839
▁अगरबत्ती	-13840
▁जाण्याचा	-13841
▁नागालैंड	-13842
▁पत्नियों	-13843
▁एखाद्याला	-13844
▁पर्यटनाला	-13845
▁माझ्याजवळ	-13846
▁मूर्तियाँ	-13847
▁सैनिकांना	-13848
▁दहशतवादाचा	-13849
▁नागरिकांनी	-13850
▁विश्वासाने	-13851
▁सरोवराच्या	-13852
▁आरोग्यविषयक	-13853
▁टाळण्यासाठी	-13854
▁तेव्हापासून	-13855
▁स्वर्गदूतों	-13856
▁त्यांच्याकडून	-13857
65	-13858
ech	-13859
नीस	-13860
CCEA	-13861
करता	-13862
डतोब	-13863
बेटी	-13864
मलेख	-13865
▁350	-13866
▁आइस	-13867
▁ऑर्	-13868
▁गोद	-13869
▁ढँक	-13870
▁देह	-13871
▁धडा	-13872
▁बूँ	-13873
▁रेक	-13874
▁अप्स	-13875
▁चौदह	-13876
▁दिलच	-13877
▁प्रत	-13878
▁बकरी	-13879
▁बनना	-13880
▁मनमो	-13881
▁इंदौर	-13882
▁कट्टर	-13883
▁कब्जा	-13884
▁काढली	-13885
▁किमती	-13886
▁गोदाम	-13887
▁जहाजा	-13888
▁तांदू	-13889
▁नमूने	-13890
▁प्रदी	-13891
▁मारने	-13892
▁राखून	-13893
▁रुंदी	-13894
▁विजयी	-13895
क्योंकि	-13896
▁अमिताभ	-13897
▁कराधान	-13898
▁कोरोनो	-13899
▁गुस्सा	-13900
▁घेताना	-13901
▁चैनलों	-13902
▁ठेवावा	-13903
▁पुकारा	-13904
▁भागाला	-13905
▁अनियमित	-13906
▁आकांक्ष	-13907
▁आणण्यात	-13908
▁कुळातील	-13909
▁दुष्काळ	-13910
▁देखरेखी	-13911
▁न्यायमू	-13912
▁वर्धापन	-13913
▁समर्थित	-13914
▁पुनर्वसन	-13915
▁प्राप्ति	-13916
▁याजकांनी	-13917
▁कम्युनिटी	-13918
▁संबंधांना	-13919
▁कशाप्रकारे	-13920
▁वस्तूंच्या	-13921
▁स्वयंपूर्ण	-13922
▁ग्रामोद्योग	-13923
▁दिल्याबद्दल	-13924
▁मंत्रालयाची	-13925
▁देशवासियांना	-13926
▁भारतीयांच्या	-13927
nic	-13928
ुआर	-13929
▁61	-13930
▁Go	-13931
▁झट	-13932
कुवत	-13933
जीएस	-13934
लोरी	-13935
सेवे	-13936
ूंची	-13937
▁खुर	-13938
▁चौर	-13939
▁जीस	-13940
▁जूट	-13941
▁दमण	-13942
▁वहन	-13943
▁व्र	-13944
▁सटी	-13945
▁हळू	-13946
ंबाबत	-13947
रेस्ट	-13948
ासमोर	-13949
ित्ता	-13950
ेमुळे	-13951
▁आयआय	-13952
▁इंजन	-13953
▁ऐकतो	-13954
▁काटे	-13955
▁घड़ी	-13956
▁टेकड	-13957
▁ट्रक	-13958
▁दलित	-13959
▁बनली	-13960
▁बसले	-13961
▁बागे	-13962
▁मनोव	-13963
▁मिठा	-13964
▁लावा	-13965
▁हमसे	-13966
▁होईन	-13967
ासारखे	-13968
▁अविभा	-13969
▁इस्सा	-13970
▁जन्मा	-13971
▁थर्मल	-13972
▁दोहरे	-13973
▁निदेश	-13974
▁प्रेष	-13975
▁फोर्ट	-13976
▁बुलेट	-13977
▁शुक्र	-13978
▁संदेह	-13979
▁सुलभी	-13980
▁आदित्य	-13981
▁उकसाया	-13982
▁कमकुवत	-13983
▁प्रतीत	-13984
▁फुफ्फु	-13985
▁ब्रॉडब	-13986
▁योनातन	-13987
▁सार्थक	-13988
▁खबरदारी	-13989
▁ताबडतोब	-13990
▁सिक्कीम	-13991
▁सीरियाई	-13992
▁आकाशवाणी	-13993
▁तुझ्याशी	-13994
▁फायदेशीर	-13995
▁माध्यमिक	-13996
▁युरोपियन	-13997
्यांपर्यंत	-13998
▁अधिकारिता	-13999
▁देशव्यापी	-14000
▁बाहेरच्या	-14001
▁सुविधांची	-14002
▁क्षेत्राचे	-14003
▁तुझ्यासाठी	-14004
▁सहकार्याची	-14005
▁पूर्वानुमान	-14006
▁प्रादुर्भाव	-14007
▁दृष्टीकोनातून	-14008
▁पंतप्रधानांची	-14009
ुव	-14010
पित	-14011
बाध	-14012
वलं	-14013
▁My	-14014
▁छळ	-14015
▁वो	-14016
काही	-14017
मुझे	-14018
ल्लम	-14019
स्से	-14020
▁कौर	-14021
▁चमू	-14022
▁पचम	-14023
▁वेढ	-14024
▁सुक	-14025
टल्या	-14026
पत्रा	-14027
मेलेक	-14028
र्लंड	-14029
स्तंभ	-14030
स्राव	-14031
▁खरीप	-14032
▁ध्वज	-14033
▁लीटर	-14034
▁वक्फ	-14035
▁वचना	-14036
▁शकला	-14037
▁अटलजी	-14038
▁अपलोड	-14039
▁एग्री	-14040
▁किसके	-14041
▁नमूना	-14042
▁विध्व	-14043
▁शिस्त	-14044
▁स्टार	-14045
▁हरदीप	-14046
▁तपस्या	-14047
▁बढ़ाते	-14048
▁मांडले	-14049
▁हालिया	-14050
▁दुष्परि	-14051
▁पोहोचला	-14052
▁मॉड्यूल	-14053
▁रागावला	-14054
▁शिखरावर	-14055
▁सर्वांत	-14056
ण्यामध्ये	-14057
▁उत्पादित	-14058
▁कलाकारों	-14059
▁शत्रूंना	-14060
▁सन्मानित	-14061
▁बद्धकोष्ठ	-14062
▁सरकारांनी	-14063
▁चिकित्सकों	-14064
▁समुद्राच्या	-14065
▁पुनर्निर्माण	-14066
▁इस्त्राएलियों	-14067
▁दौऱ्यादरम्यान	-14068
-9	-14069
42	-14070
एआय	-14071
ढाओ	-14072
विद	-14073
ोला	-14074
▁छः	-14075
जैसे	-14076
मवेत	-14077
ष्ठी	-14078
▁GeM	-14079
▁अब्	-14080
▁कस्	-14081
▁खार	-14082
▁गरो	-14083
▁चंप	-14084
▁चाब	-14085
▁टिड	-14086
▁नाच	-14087
▁रोट	-14088
.2018	-14089
कल्या	-14090
गतीने	-14091
मिश्क	-14092
यांचा	-14093
▁2009	-14094
▁अनाथ	-14095
▁असीम	-14096
▁उडान	-14097
▁कृपे	-14098
▁गावी	-14099
▁चैंप	-14100
▁धावा	-14101
▁नजदी	-14102
▁फिली	-14103
▁वयात	-14104
▁वाढू	-14105
▁शेता	-14106
▁उठाना	-14107
▁चौकशी	-14108
▁तूफान	-14109
▁दयाळू	-14110
▁बैठने	-14111
▁मौतें	-14112
▁रूपों	-14113
▁विकृत	-14114
▁सिध्द	-14115
.4.2020	-14116
▁अंमलात	-14117
▁किनारी	-14118
▁कुणीही	-14119
▁केन्या	-14120
▁खाएंगे	-14121
▁तस्वीर	-14122
▁तांदूळ	-14123
▁दिशेला	-14124
▁पहुँचे	-14125
▁बनलेले	-14126
▁बरोबरच	-14127
▁राज्या	-14128
▁उड़ानें	-14129
▁गंभीरता	-14130
▁तात्काळ	-14131
▁दर्जाचे	-14132
▁प्रशासक	-14133
▁बदलत्या	-14134
▁समन्वित	-14135
▁स्पेक्ट	-14136
▁कहानियों	-14137
▁नामांकित	-14138
▁नियमावली	-14139
▁बनवण्यात	-14140
▁मंगोलिया	-14141
▁माहितीचे	-14142
▁योजनांची	-14143
▁पर्वताच्या	-14144
▁वर्षांसाठी	-14145
▁उपस्थितांना	-14146
▁आत्मनिर्भरता	-14147
▁तुमच्यामध्ये	-14148
▁प्रवेशद्वारा	-14149
55	-14150
84	-14151
एएस	-14152
कमी	-14153
डेड	-14154
पोल	-14155
राह	-14156
रेब	-14157
वळी	-14158
सीन	-14159
▁82	-14160
▁ओस	-14161
▁गद	-14162
पंचा	-14163
वेली	-14164
ौषधी	-14165
▁550	-14166
▁अॅप	-14167
▁जीप	-14168
▁तीर	-14169
▁योह	-14170
▁राठ	-14171
▁अँटी	-14172
▁काळे	-14173
▁गप्प	-14174
▁गवता	-14175
▁जीता	-14176
▁धावत	-14177
▁बताओ	-14178
▁मोती	-14179
▁शकलो	-14180
▁जोड़े	-14181
▁तुच्छ	-14182
▁नोकरी	-14183
▁पर्दे	-14184
▁बांधा	-14185
▁बाजूस	-14186
▁लघुपट	-14187
▁वाचवू	-14188
▁वाद्य	-14189
▁हटाने	-14190
▁होतास	-14191
▁अनेकदा	-14192
▁अभिन्न	-14193
▁आक्रमण	-14194
▁डिफेंस	-14195
▁ताज्या	-14196
▁पर्यवे	-14197
▁पुरावा	-14198
▁फिटनेस	-14199
▁मनरेगा	-14200
▁रेटिंग	-14201
▁साधनों	-14202
▁अनुयायी	-14203
▁गुजराती	-14204
▁नाकारले	-14205
▁परीक्षे	-14206
▁सौहार्द	-14207
▁कॉरपोरेट	-14208
▁ट्रेकिंग	-14209
▁देवाकडून	-14210
▁पक्षांनी	-14211
▁कटिबद्धता	-14212
▁निर्मितीत	-14213
▁सल्लामसलत	-14214
▁गतिविधियाँ	-14215
▁दार्जिलिंग	-14216
▁बाजारपेठेत	-14217
▁विशाखापट्ट	-14218
▁उत्पादनांची	-14219
▁कॉम्प्लेक्स	-14220
▁कार्यक्रमाचा	-14221
▁व्यक्तींच्या	-14222
▁संरक्षणासाठी	-14223
86	-14224
87	-14225
IP	-14226
बेस	-14227
य्य	-14228
ातच	-14229
िएत	-14230
ूला	-14231
▁आळ	-14232
▁ढी	-14233
धिका	-14234
न्दर	-14235
बीएस	-14236
भूती	-14237
रानी	-14238
लेखा	-14239
ष्णा	-14240
▁अटक	-14241
▁मून	-14242
▁रॉक	-14243
▁साग	-14244
ग्रेड	-14245
न्सिल	-14246
ुत्तर	-14247
▁अंडर	-14248
▁एंटर	-14249
▁खाल्	-14250
▁चैतन	-14251
▁जश्न	-14252
▁ताजी	-14253
▁त्यौ	-14254
▁फैली	-14255
▁बाईं	-14256
▁बेहो	-14257
▁बैंड	-14258
▁रोका	-14259
▁लखनौ	-14260
▁लष्क	-14261
▁वाटू	-14262
टीच्या	-14263
नात्मक	-14264
संस्था	-14265
▁India	-14266
▁अवसाद	-14267
▁आखिरी	-14268
▁गरोदर	-14269
▁पडणार	-14270
▁बनावट	-14271
▁बैठकर	-14272
▁मारता	-14273
▁सुनाई	-14274
▁स्टोन	-14275
▁हिंसक	-14276
नापासून	-14277
▁इंदिरा	-14278
▁दमिश्क	-14279
▁निगडीत	-14280
▁नीलामी	-14281
▁बजावली	-14282
▁रोगिणी	-14283
▁लाभांश	-14284
▁अश्विनी	-14285
▁बेहतरीन	-14286
▁राजांचा	-14287
▁संग्रहण	-14288
▁ह्यांची	-14289
▁अस्वीकार	-14290
▁नगराच्या	-14291
▁रंगाच्या	-14292
▁वास्तव्य	-14293
▁संबंधिता	-14294
▁ह्यासाठी	-14295
▁क्रमवारीत	-14296
▁मार्गदर्श	-14297
▁मिळणाऱ्या	-14298
▁लावल्याने	-14299
▁प्रवासियों	-14300
▁प्रेरणादायी	-14301
▁प्रकल्पामुळे	-14302
41	-14303
AD	-14304
ुस	-14305
”.	-14306
ंडे	-14307
आरओ	-14308
एसी	-14309
बीज	-14310
यकल	-14311
वेज	-14312
▁71	-14313
▁गत	-14314
▁थि	-14315
दराज	-14316
रिशस	-14317
▁कैम	-14318
▁छोट	-14319
▁टाय	-14320
जामिन	-14321
यांचे	-14322
सीएआर	-14323
▁उदया	-14324
▁कारभ	-14325
▁कॉर्	-14326
▁गोली	-14327
▁झंडी	-14328
▁तिकी	-14329
▁योना	-14330
▁राशन	-14331
▁वागा	-14332
▁अजमेर	-14333
▁इच्छि	-14334
▁उठाते	-14335
▁टाकीन	-14336
▁तिथेच	-14337
▁दिसला	-14338
▁प्लॅट	-14339
▁बनाती	-14340
▁मरणार	-14341
▁विधाय	-14342
▁शहाणे	-14343
▁संसार	-14344
▁सेलाह	-14345
▁हेलिक	-14346
▁इंग्रज	-14347
▁देवावर	-14348
▁द्रव्य	-14349
▁निभाने	-14350
▁रिफाइन	-14351
▁हेशबोन	-14352
▁औषधांचा	-14353
▁कामकाजा	-14354
▁चिड़िया	-14355
▁छुड़ाया	-14356
▁शरीरावर	-14357
▁समकालीन	-14358
▁सीपीएसई	-14359
▁प्रक्षेप	-14360
▁प्रेक्षक	-14361
▁बिमस्टेक	-14362
▁मंडाविया	-14363
▁राजेंद्र	-14364
▁वर्गीकरण	-14365
▁जीवनाच्या	-14366
▁पुरवण्यात	-14367
▁बंगालच्या	-14368
▁वचनबद्धता	-14369
▁शिष्यांना	-14370
▁चित्रपटाचे	-14371
▁प्रदेशच्या	-14372
▁सार्वत्रिक	-14373
▁समुदायाच्या	-14374
▁कार्यप्रणाली	-14375
▁गुंतवणुकीच्या	-14376
TC	-14377
.07	-14378
गाळ	-14379
टित	-14380
निश	-14381
सित	-14382
ियत	-14383
चीही	-14384
जोरी	-14385
न्ने	-14386
मतीत	-14387
विजन	-14388
▁115	-14389
▁LMT	-14390
▁एग्	-14391
▁तंद	-14392
▁मोल	-14393
वालों	-14394
▁अज्ञ	-14395
▁असती	-14396
▁अहमद	-14397
▁चौकी	-14398
▁ट्रॉ	-14399
▁पीला	-14400
▁भाले	-14401
▁अर्थस	-14402
▁असमान	-14403
▁घडणार	-14404
▁घुटने	-14405
▁घुड़स	-14406
▁चाहती	-14407
▁धबधबा	-14408
▁नामित	-14409
▁पट्टी	-14410
▁फैक्ट	-14411
▁बंधूं	-14412
▁बर्या	-14413
▁बोलाव	-14414
▁मनाली	-14415
▁वाढती	-14416
▁साधून	-14417
▁हल्का	-14418
▁अयोग्य	-14419
▁अहिंसा	-14420
▁गोळ्या	-14421
▁डीबीटी	-14422
▁तंबाखू	-14423
▁दूरस्थ	-14424
▁परिचार	-14425
▁मॉरिशस	-14426
▁सोन्या	-14427
्यांमुळे	-14428
▁निर्बाध	-14429
▁शरीराचे	-14430
▁स्वतःचे	-14431
▁स्वाधीन	-14432
▁हस्तकला	-14433
▁तिच्यावर	-14434
▁परिषदेने	-14435
▁पुनर्गठन	-14436
▁असुरक्षित	-14437
▁चर्चासत्र	-14438
▁नेतन्याहू	-14439
▁न्यूयॉर्क	-14440
▁शिष्टमंडळ	-14441
▁अल्पसंख्या	-14442
▁निर्मितीला	-14443
▁संसर्गजन्य	-14444
▁आपल्याबरोबर	-14445
▁कोरोनोवायरस	-14446
▁सेवानिवृत्त	-14447
▁व्यवस्थापकीय	-14448
ik	-14449
तच	-14450
्द	-14451
जिए	-14452
दाई	-14453
सिम	-14454
सुल	-14455
▁02	-14456
न्शन	-14457
पाचे	-14458
हाला	-14459
ॉल्व	-14460
▁III	-14461
▁अमे	-14462
▁आतड	-14463
▁इंफ	-14464
▁कपड	-14465
▁जगू	-14466
▁जोश	-14467
▁तरच	-14468
▁बुड	-14469
▁रजि	-14470
दुर्ग	-14471
द्दीन	-14472
▁खावे	-14473
▁गटात	-14474
▁गरजू	-14475
▁जनधन	-14476
▁द्रव	-14477
▁प्रव	-14478
▁फुला	-14479
▁महार	-14480
▁लड़ा	-14481
▁शिंप	-14482
▁शेखर	-14483
▁हलके	-14484
ध्यापक	-14485
▁अरामी	-14486
▁चेतना	-14487
▁जोडून	-14488
▁नाराज	-14489
▁पॉइंट	-14490
▁प्रमो	-14491
▁हार्ट	-14492
व्यवसाय	-14493
▁नौकरों	-14494
▁प्रताप	-14495
▁सत्रात	-14496
▁सामाईक	-14497
▁हेतूने	-14498
▁इंग्रजी	-14499
▁कलात्मक	-14500
▁नगरातील	-14501
▁पाचव्या	-14502
▁भावनेने	-14503
▁मिद्यान	-14504
विषयीच्या	-14505
▁एनटीपीसी	-14506
▁खूबसूरती	-14507
▁जलदगतीने	-14508
▁रेल्वेगा	-14509
▁वस्तूंची	-14510
▁आल्यानंतर	-14511
▁स्त्रियों	-14512
▁स्पोर्ट्स	-14513
▁डब्ल्यूटीओ	-14514
▁व्यावहारिक	-14515
▁सामान्यपणे	-14516
▁स्पेक्ट्रम	-14517
▁गुंतवणुकीला	-14518
▁निर्णयामुळे	-14519
▁केंद्रस्थानी	-14520
ऊंड	-14521
गेट	-14522
पत्	-14523
यें	-14524
लोत	-14525
ाति	-14526
▁04	-14527
▁4.	-14528
▁गह	-14529
हाची	-14530
िन्स	-14531
ोदरा	-14532
▁(19	-14533
▁अहज	-14534
▁चित	-14535
▁नशी	-14536
▁बचे	-14537
▁यकृ	-14538
▁युव	-14539
▁शूट	-14540
▁शॉप	-14541
▁सती	-14542
पणाचे	-14543
▁अनार	-14544
▁अनिल	-14545
▁कराई	-14546
▁कारक	-14547
▁केवी	-14548
▁ग्रं	-14549
▁तारे	-14550
▁दगडा	-14551
▁दादा	-14552
▁बंगळ	-14553
▁बदलत	-14554
▁बेंच	-14555
▁लबान	-14556
▁समीप	-14557
ध्येला	-14558
ल्शियम	-14559
▁चालून	-14560
▁ठेवता	-14561
▁फील्ड	-14562
▁भट्टी	-14563
▁मानवा	-14564
▁लगाकर	-14565
▁संमेल	-14566
▁अंत्यो	-14567
▁दाखवली	-14568
▁न्यायी	-14569
▁प्याला	-14570
▁रक्तात	-14571
▁उपन्यास	-14572
▁त्यौहार	-14573
▁देशांची	-14574
▁प्रजाती	-14575
▁मुकाबले	-14576
▁संस्कृत	-14577
▁द्राक्षे	-14578
▁मोबिलिटी	-14579
▁कॉन्क्लेव	-14580
▁दूरदृष्टी	-14581
▁अभिव्यक्ति	-14582
शक	-14583
कोर	-14584
खोर	-14585
जिद	-14586
िएट	-14587
▁(3	-14588
▁गम	-14589
करघा	-14590
डीटी	-14591
ब्री	-14592
मीरी	-14593
राहो	-14594
लीचे	-14595
साइड	-14596
सावे	-14597
स्रो	-14598
▁इशा	-14599
▁धाव	-14600
▁बनत	-14601
▁भेड	-14602
▁मर्	-14603
▁समृ	-14604
इजेशन	-14605
नमेंट	-14606
भिमुख	-14607
वलिंग	-14608
▁1200	-14609
▁आंगन	-14610
▁करुब	-14611
▁कोमल	-14612
▁गाणे	-14613
▁गुहा	-14614
▁जावा	-14615
▁डाली	-14616
▁नाना	-14617
▁निगल	-14618
▁पेपर	-14619
▁पैकी	-14620
▁फाइन	-14621
▁मादक	-14622
▁वाळू	-14623
▁सराव	-14624
▁स्वर	-14625
▁हिरा	-14626
▁ब्रेक	-14627
▁यमुना	-14628
▁रागाव	-14629
▁राजेश	-14630
▁वेस्ट	-14631
▁संपर्	-14632
▁सफारी	-14633
▁अर्जुन	-14634
▁आशुतोष	-14635
▁ऑपरेटर	-14636
▁नसबंदी	-14637
▁बनाएगा	-14638
▁युध्दा	-14639
▁उड़ानों	-14640
▁गव्हर्न	-14641
▁देशबांध	-14642
▁पडताळणी	-14643
▁प्राधान	-14644
▁वनस्पति	-14645
▁दर्शविली	-14646
▁धर्मशाला	-14647
▁हस्ताक्ष	-14648
▁गुन्हेगार	-14649
▁चंद्रशेखर	-14650
▁प्रेमियों	-14651
▁सॉफ्टवेयर	-14652
▁अभियानाच्या	-14653
▁यांच्यासाठी	-14654
▁रुपयांपेक्षा	-14655
-0	-14656
EP	-14657
SE	-14658
गळ	-14659
▁h	-14660
ंजर	-14661
खाल	-14662
ज़ी	-14663
शार	-14664
स्ड	-14665
▁97	-14666
▁NH	-14667
▁कद	-14668
▁ख़	-14669
ड़की	-14670
पाती	-14671
ाराम	-14672
▁एलो	-14673
▁बघू	-14674
▁लिन	-14675
▁लोभ	-14676
पादित	-14677
ानाला	-14678
िनेंट	-14679
▁अष्ट	-14680
▁आणतो	-14681
▁इनका	-14682
▁ऐकला	-14683
▁कळते	-14684
▁जूते	-14685
▁मसाज	-14686
▁वयोग	-14687
▁हुकू	-14688
ळासाठी	-14689
▁आयाती	-14690
▁उघडले	-14691
▁टाइगर	-14692
▁बगीचे	-14693
▁मीनार	-14694
▁सज्जन	-14695
कामध्ये	-14696
ग्रामीण	-14697
यांसाठी	-14698
विद्युत	-14699
▁इंडियस	-14700
▁कॉमर्स	-14701
▁खेळाडू	-14702
▁जाणारा	-14703
▁दिलाता	-14704
▁निकाली	-14705
▁फुटबॉल	-14706
▁बढ़ेगा	-14707
▁मांडला	-14708
▁मेंढरे	-14709
▁सांभाळ	-14710
▁चित्रित	-14711
▁बाबेलला	-14712
▁रवींद्र	-14713
▁रहिवासी	-14714
▁वर्षाचा	-14715
▁ट्रायफेड	-14716
▁दूरदर्शी	-14717
▁मनुष्यों	-14718
▁योद्धाओं	-14719
▁सांगितला	-14720
▁सूर्योदय	-14721
▁सेंद्रिय	-14722
▁सैन्याला	-14723
▁पातळीवरील	-14724
▁अश्शूरच्या	-14725
▁अल्पसंख्याक	-14726
▁आंध्रप्रदेश	-14727
▁शोधण्यासाठी	-14728
▁मंत्रिस्तरीय	-14729
.)	-14730
48	-14731
FW	-14732
ईर	-14733
.50	-14734
टीज	-14735
माथ	-14736
ेशर	-14737
ौदा	-14738
▁२१	-14739
जीके	-14740
पाटी	-14741
र्वा	-14742
ोसिस	-14743
▁110	-14744
▁कसम	-14745
▁कसो	-14746
▁किड	-14747
▁कुर	-14748
▁गोप	-14749
▁जले	-14750
▁डूब	-14751
▁पेल	-14752
▁बगल	-14753
▁बसे	-14754
▁रेत	-14755
▁लग्	-14756
यतनाम	-14757
वासीर	-14758
ोत्सव	-14759
▁आर्म	-14760
▁तरूण	-14761
▁पिका	-14762
▁पौंड	-14763
▁मनोज	-14764
▁योनि	-14765
▁रोना	-14766
▁लाते	-14767
▁लिखी	-14768
▁लैंड	-14769
▁लोकं	-14770
ेतल्या	-14771
▁एक्शन	-14772
▁कल्पन	-14773
▁केसेस	-14774
▁जितने	-14775
▁त्रिश	-14776
▁पाहणे	-14777
▁प्रबल	-14778
▁मोटार	-14779
▁लाभले	-14780
▁विनंत	-14781
▁स्नाय	-14782
निर्मित	-14783
स्वार्थ	-14784
▁अतिचार	-14785
▁आयोजना	-14786
▁गेलेले	-14787
▁टाकावे	-14788
▁टॅक्सी	-14789
▁तिमाही	-14790
▁दफनाया	-14791
▁पांढरे	-14792
▁पाहुणे	-14793
▁प्राणा	-14794
▁विकृति	-14795
▁हातमाग	-14796
▁गुरुदेव	-14797
▁चंद्रमा	-14798
▁ज्यांचे	-14799
▁बनाऊंगा	-14800
▁माणसाचा	-14801
▁सहाव्या	-14802
▁एनडीआरएफ	-14803
▁कंबोडिया	-14804
▁पासपोर्ट	-14805
▁भरलेल्या	-14806
▁विश्वनाथ	-14807
▁वेळापत्र	-14808
▁सेवेच्या	-14809
▁आसपासच्या	-14810
▁इस्राएलवर	-14811
▁मूल्यमापन	-14812
▁मैनेजमेंट	-14813
▁साम्राज्य	-14814
▁स्वीकारले	-14815
▁डब्ल्यूएचओ	-14816
▁दिल्लीच्या	-14817
▁प्रकल्पाची	-14818
▁प्लॅटफॉर्म	-14819
▁येण्यासाठी	-14820
▁प्रवेशद्वार	-14821
13	-14822
end	-14823
तुस	-14824
फाल	-14825
बास	-14826
यदि	-14827
▁87	-14828
▁अँग	-14829
▁उरी	-14830
▁छुआ	-14831
▁डिम	-14832
▁पोर	-14833
▁विघ	-14834
एनएएम	-14835
नॅशनल	-14836
योजना	-14837
ुआरों	-14838
▁CSIR	-14839
▁अकरा	-14840
▁अरबी	-14841
▁आयआर	-14842
▁उड़ा	-14843
▁ऑफिस	-14844
▁ओमान	-14845
▁जावी	-14846
▁दाने	-14847
▁पहने	-14848
▁ब्लड	-14849
▁शेखा	-14850
मार्गा	-14851
वामुळे	-14852
िएतनाम	-14853
▁जवळून	-14854
▁डालने	-14855
▁दसवें	-14856
▁पशुओं	-14857
▁प्रगट	-14858
▁बताएं	-14859
▁विनोद	-14860
▁संतान	-14861
▁साहाय	-14862
▁स्पीड	-14863
▁स्पेन	-14864
▁कमजोरी	-14865
▁चर्चेत	-14866
▁ठिकाणे	-14867
▁ड्रग्स	-14868
▁बढ़ेगी	-14869
▁येणारी	-14870
▁रविवार	-14871
▁रहूंगा	-14872
▁लबानोन	-14873
▁वृक्षा	-14874
▁सायन्स	-14875
▁स्नायू	-14876
▁";&#39;	-14877
▁आवृत्ती	-14878
▁खजुराहो	-14879
▁डाउनलोड	-14880
▁पट्टिका	-14881
▁शिफारसी	-14882
▁सणाच्या	-14883
▁आपल्यावर	-14884
▁देशांतील	-14885
▁पवित्रता	-14886
▁पाहिल्या	-14887
▁प्रदीर्घ	-14888
▁हितासाठी	-14889
ण्यापेक्षा	-14890
▁चुनौतियां	-14891
▁प्रतिबंधक	-14892
▁ग्राहकांना	-14893
▁मार्गक्रमण	-14894
▁युवकांच्या	-14895
▁स्वर्गातून	-14896
▁करणाऱ्यांना	-14897
▁महामारीमुळे	-14898
▁अधिकाऱ्यांची	-14899
▁परिवर्तनकारी	-14900
▁पर्यटकांच्या	-14901
61	-14902
94	-14903
FC	-14904
na	-14905
बद	-14906
▁a	-14907
तीस	-14908
ापे	-14909
▁रच	-14910
ंदना	-14911
आईआई	-14912
एफपी	-14913
चाली	-14914
रजमा	-14915
र्वे	-14916
लेटर	-14917
हाउस	-14918
्रेल	-14919
▁अलं	-14920
▁केश	-14921
▁चरम	-14922
▁जीओ	-14923
▁दाट	-14924
▁नती	-14925
▁भाड	-14926
▁लोड	-14927
▁संभ	-14928
▁सिड	-14929
ंवरील	-14930
भगवान	-14931
राणिक	-14932
संपदा	-14933
▁अन्त	-14934
▁कराव	-14935
▁ठाणे	-14936
▁ताजे	-14937
▁पथरी	-14938
▁पायर	-14939
▁फरीस	-14940
▁बर्ण	-14941
▁शोषण	-14942
ड़ियाँ	-14943
वासमोर	-14944
▁करूया	-14945
▁किर्ग	-14946
▁जुकाम	-14947
▁दलाचे	-14948
▁परतले	-14949
▁फिलिप	-14950
▁फीसदी	-14951
▁मोक्ष	-14952
▁साबुन	-14953
विरूध्द	-14954
▁अतिसार	-14955
▁उदघाटन	-14956
▁कितीही	-14957
▁चमकदार	-14958
▁स्नायु	-14959
▁खातरजमा	-14960
▁परिभाषा	-14961
▁पौराणिक	-14962
▁बातम्या	-14963
▁ब्रिटेन	-14964
▁मछुआरों	-14965
्यांबरोबर	-14966
▁कोटींहून	-14967
▁घेणाऱ्या	-14968
▁देवेंद्र	-14969
▁धोकादायक	-14970
▁बोलाविले	-14971
▁याजकांना	-14972
▁स्वयंपाक	-14973
▁एप्लिकेशन	-14974
▁मनुष्याचा	-14975
▁सैलानियों	-14976
▁दुष्परिणाम	-14977
▁उद्यानाच्या	-14978
▁नियमशास्त्राचे	-14979
▁विद्यापीठाच्या	-14980
82	-14981
RC	-14982
णं	-14983
जेर	-14984
शंस	-14985
ाशी	-14986
िसर	-14987
गिंग	-14988
तिया	-14989
बाने	-14990
ॉनिक	-14991
▁ठिक	-14992
▁डाइ	-14993
कीर्ण	-14994
संवाद	-14995
▁अधिप	-14996
▁आचार	-14997
▁चौबे	-14998
▁ट्री	-14999
▁पढाओ	-15000
▁पैनल	-15001
▁भाजी	-15002
▁लावू	-15003
▁साला	-15004
ंकरिंग	-15005
▁अनलॉक	-15006
▁अपघात	-15007
▁आढळते	-15008
▁चित्त	-15009
▁जुलाब	-15010
▁तकलीफ	-15011
▁देसाई	-15012
▁संगमर	-15013
▁सेनान	-15014
▁सैतान	-15015
▁अकाउंट	-15016
▁अमालेक	-15017
▁करारात	-15018
▁किंगडम	-15019
▁देखेगा	-15020
▁पिछड़े	-15021
▁पुरेशा	-15022
▁शर्तों	-15023
▁सीमेवर	-15024
▁हथकरघा	-15025
▁एकजुटता	-15026
▁गोत्रों	-15027
▁देवदूता	-15028
▁न्यायनि	-15029
▁पार्वती	-15030
▁बनाएंगे	-15031
▁माइक्रो	-15032
▁राजाकडे	-15033
▁सांगावे	-15034
▁अंत्योदय	-15035
▁अविभाज्य	-15036
▁जोडण्यात	-15037
▁डॉक्टर्स	-15038
▁फिलिस्ती	-15039
▁बालविकास	-15040
▁रेल्वेचे	-15041
▁शिकवणुकी	-15042
▁सर्विसेज	-15043
▁अपराधियों	-15044
▁कुटुंबिया	-15045
▁पाठवण्यात	-15046
▁रेगिस्तान	-15047
▁सेनानियों	-15048
▁अनुप्रयोगों	-15049
▁आव्हानात्मक	-15050
▁पर्यटनाच्या	-15051
▁हस्ताक्षरित	-15052
▁नागरिकांसाठी	-15053
▁प्रकल्पासाठी	-15054
--	-15055
PT	-15056
os	-15057
ul	-15058
ईं	-15059
.06	-15060
खात	-15061
लिस	-15062
सरु	-15063
्ता	-15064
▁अद	-15065
▁ओल	-15066
नेशन	-15067
फ्यू	-15068
मेरा	-15069
यांश	-15070
रोहर	-15071
व्हर	-15072
शाळा	-15073
ोमोट	-15074
▁GST	-15075
▁दही	-15076
▁नोब	-15077
▁मरु	-15078
▁सका	-15079
ंमधील	-15080
▁एनआर	-15081
▁कलंक	-15082
▁क़ान	-15083
▁काठम	-15084
▁गुणा	-15085
▁जलसं	-15086
▁मेजर	-15087
▁विहि	-15088
▁संघा	-15089
▁साबर	-15090
▁अबनेर	-15091
▁उभ्या	-15092
▁ग्रीक	-15093
▁ग्वाल	-15094
▁टाकील	-15095
▁थांबा	-15096
▁निभाव	-15097
▁नौदला	-15098
▁बाळगा	-15099
▁युगात	-15100
▁सारखी	-15101
▁कानावर	-15102
▁गोल्डन	-15103
▁ठिकाणा	-15104
▁धान्या	-15105
▁परिक्ष	-15106
▁प्रेरक	-15107
▁बरोबरी	-15108
▁वेळेला	-15109
्यांबाबत	-15110
▁अनिवासी	-15111
▁आजपासून	-15112
▁कितीतरी	-15113
▁मुदतवाढ	-15114
▁वृक्षों	-15115
▁समझौतों	-15116
▁सांसदों	-15117
▁तुरुंगात	-15118
▁फरीसियों	-15119
▁राज्याचे	-15120
▁रिपब्लिक	-15121
▁सचिवांनी	-15122
▁कार्यालये	-15123
▁काळामध्ये	-15124
▁न्यायाधिक	-15125
▁वापरण्यात	-15126
▁सन्माननीय	-15127
▁अम्मोनियों	-15128
▁कार्यात्मक	-15129
▁क्षेत्राची	-15130
▁पृथ्वीच्या	-15131
▁इस्राएलमधील	-15132
▁डेव्हलपमेंट	-15133
▁यांच्याकडून	-15134
▁संग्रहालयात	-15135
▁अर्थव्यवस्थेत	-15136
34	-15137
ND	-15138
ig	-15139
ॅग	-15140
टिक	-15141
भेद	-15142
हाल	-15143
▁ऊस	-15144
GATI	-15145
ters	-15146
ंतील	-15147
एनसी	-15148
केंद	-15149
तीचा	-15150
धाने	-15151
रुग्	-15152
ुष्ट	-15153
▁ज़र	-15154
▁जुळ	-15155
▁पॅन	-15156
▁मुह	-15157
▁लिट	-15158
▁वोट	-15159
▁सौं	-15160
antri	-15161
वणारी	-15162
ानिया	-15163
ुकेशन	-15164
▁असाच	-15165
▁गाठी	-15166
▁घेईन	-15167
▁जिगर	-15168
▁डेरा	-15169
▁तणाव	-15170
▁तथाप	-15171
▁तरंग	-15172
▁दोहर	-15173
▁नाणे	-15174
▁बूँद	-15175
▁मंदी	-15176
रीत्या	-15177
▁अन्वे	-15178
▁एकंदर	-15179
▁कोनों	-15180
▁खतरों	-15181
▁चढ़ाई	-15182
▁दराने	-15183
▁दिलेस	-15184
▁धरोहर	-15185
▁नावीन	-15186
▁पहारे	-15187
▁प्यास	-15188
▁मशहूर	-15189
▁यादीत	-15190
▁समवेत	-15191
▁सरसों	-15192
▁सुनील	-15193
▁हथिया	-15194
▁क्षमते	-15195
▁वर्णित	-15196
▁शाखाओं	-15197
▁सैन्या	-15198
▁अनुदाना	-15199
▁मागच्या	-15200
▁आराधनालय	-15201
▁उपक्रमों	-15202
▁चार्टर्ड	-15203
▁बनलेल्या	-15204
▁येणार्या	-15205
▁वंशजांना	-15206
▁वाडवडिला	-15207
▁शक्तियों	-15208
▁सुसज्जित	-15209
▁उद्योगाला	-15210
▁नाविन्यता	-15211
▁रणनीतियों	-15212
▁लक्षद्वीप	-15213
▁लांबीच्या	-15214
▁पाणीपुरवठा	-15215
▁प्राध्यापक	-15216
▁मानवतेच्या	-15217
▁सहकार्याचे	-15218
▁अर्थशास्त्र	-15219
▁एकमेकांच्या	-15220
ईई	-15221
डल	-15222
५०	-15223
-12	-15224
eva	-15225
लाश	-15226
शलम	-15227
सून	-15228
ैरे	-15229
ोली	-15230
▁६०	-15231
inis	-15232
करों	-15233
टीएम	-15234
दर्द	-15235
▁अबू	-15236
▁नशे	-15237
▁वान	-15238
निहार	-15239
▁इन्स	-15240
▁कबीर	-15241
▁गाइड	-15242
▁जड़ी	-15243
▁जाईन	-15244
▁तमाम	-15245
▁नेवि	-15246
▁पड़ी	-15247
▁पॉवर	-15248
▁रावत	-15249
▁सगाई	-15250
पश्चिम	-15251
▁किरेन	-15252
▁खुदरा	-15253
▁गाड़ी	-15254
▁चयनित	-15255
▁जीर्ण	-15256
▁निशान	-15257
▁बदलले	-15258
▁वाचले	-15259
▁सवारी	-15260
▁सांगड	-15261
▁सोचते	-15262
▁होशील	-15263
▁असमर्थ	-15264
▁केनिया	-15265
▁घरातून	-15266
▁घुटनों	-15267
▁बिगाड़	-15268
▁भेड़ों	-15269
▁रखूंगा	-15270
▁आनंदाची	-15271
▁जलशक्ती	-15272
▁तात्पुर	-15273
▁दीनदयाळ	-15274
▁धोरणाचा	-15275
▁नीतिमान	-15276
▁पाहिजेस	-15277
▁पूर्वसं	-15278
▁लक्ष्मण	-15279
▁लाखाहून	-15280
▁वर्चुअल	-15281
▁शिवलिंग	-15282
▁हितधारक	-15283
▁एलिय्याह	-15284
▁पोर्टलवर	-15285
▁रिफाइनरी	-15286
▁ग्रामपंचा	-15287
▁घरांमध्ये	-15288
▁ठेवण्याची	-15289
▁त्यांनाही	-15290
▁प्रशंसनीय	-15291
▁प्रशिक्षक	-15292
▁मध्यवर्ती	-15293
▁रस्त्याने	-15294
▁प्रजातियों	-15295
प्रधानमंत्री	-15296
▁अभ्यासक्रमा	-15297
▁त्याच्याजवळ	-15298
▁राष्ट्रव्यापी	-15299
36	-15300
Gov	-15301
RDO	-15302
गडी	-15303
छित	-15304
वुड	-15305
ालय	-15306
ासं	-15307
▁08	-15308
▁ओम	-15309
▁ज्	-15310
2019	-15311
चनों	-15312
दाने	-15313
पॅथी	-15314
मधली	-15315
सादा	-15316
स्पी	-15317
▁PPE	-15318
▁आबे	-15319
▁इस्	-15320
▁चाम	-15321
▁तशा	-15322
▁दूं	-15323
▁मगर	-15324
▁हाश	-15325
दिवशी	-15326
स्पेस	-15327
स्युट	-15328
हायचे	-15329
्सटेक	-15330
▁करेन	-15331
▁खास्	-15332
▁गलील	-15333
▁झरने	-15334
▁झुका	-15335
▁नीली	-15336
▁पारा	-15337
▁पॅरा	-15338
▁बेल्	-15339
▁मिसळ	-15340
▁मैरी	-15341
▁यादव	-15342
▁वागत	-15343
▁सभेत	-15344
▁सीधी	-15345
णीच्या	-15346
▁आजकाल	-15347
▁काटने	-15348
▁केलेत	-15349
[...]
